[PAD]
[UNK]
[CLS]
[SEP]
[MASK]
!
"
#
$
%
&
'
(
)
*
+
,
-
.
/
0
1
2
3
4
5
6
7
8
9
:
;
<
=
>
?
@
[
\
]
^
_
`
a
b
c
d
e
f
g
h
i
j
k
l
m
n
o
p
q
r
s
t
u
v
w
x
y
z
{
|
}
~
¡
¢
£
¤
¥
¦
§
¨
©
ª
«
¬
®
¯
°
±
²
³
´
µ
¶
·
¸
¹
º
»
¼
½
¾
¿
×
ß
æ
ð
÷
ø
þ
đ
ħ
ı
ĸ
ł
ŋ
œ
ƅ
ƍ
ƒ
ƙ
ƛ
ƞ
ƭ
ƴ
ƶ
ƿ
ǀ
ǁ
ǂ
ǝ
ȣ
ȥ
ȵ
ȼ
ɂ
ɐ
ɑ
ɒ
ɓ
ɔ
ɕ
ɖ
ɗ
ə
ɚ
ɛ
ɜ
ɝ
ɡ
ɣ
ɤ
ɥ
ɦ
ɨ
ɩ
ɪ
ɬ
ɭ
ɮ
ɯ
ɱ
ɲ
ɳ
ɵ
ɶ
ɷ
ɸ
ɹ
ɻ
ɾ
ɿ
ʀ
ʁ
ʂ
ʃ
ʅ
ʈ
ʉ
ʊ
ʋ
ʌ
ʎ
ʏ
ʐ
ʑ
ʒ
ʔ
ʕ
ʘ
ʝ
ʟ
ʦ
ʧ
ʰ
ʱ
ʲ
ʷ
ʹ
ʺ
ʼ
˂
˃
˄
ˆ
ˇ
ˉ
ː
ˑ
˘
˙
˚
˜
˝
˞
˟
ˠ
ˤ
˪
˭
ˮ
˴
ͳ
ͻ
΀
΁
΃
΄
΍
α
β
γ
δ
ε
ζ
η
θ
ι
κ
λ
μ
ν
ξ
ο
π
ρ
ς
σ
τ
υ
φ
χ
ψ
ω
ϐ
ϑ
ϒ
ϕ
ϖ
ϝ
ϡ
ϫ
ϭ
ϰ
ϱ
ϲ
ϵ
ϼ
а
б
в
г
д
е
ж
з
и
к
л
м
н
о
п
р
с
т
у
ф
х
ц
ч
ш
щ
ь
э
ю
я
є
ѕ
і
ј
ћ
ѱ
ѳ
ѵ
ґ
қ
ҝ
ҡ
ҫ
ү
ұ
ҳ
һ
ӏ
ӕ
ә
ө
ӽ
ԏ
ԑ
փ
օ
־
׀
א
ב
י
ץ
ש
׳
،
ا
ت
د
ر
ع
ـ
ف
ل
و
٠
١
٢
٣
٤
٥
٧
٨
٩
٪
٬
٭
ߚ
ߝ
ࡩ
ࣈ
ः
क
च
ण
फ
र
ल
ह
ा
ि
०
ก
ข
ง
ต
ท
ธ
น
บ
ป
ฝ
พ
ฟ
ภ
ย
ร
ล
ว
ศ
ห
อ
ะ
า
฿
เ
แ
ใ
ไ
༌
ခ
ᄀ
ᄁ
ᄂ
ᄃ
ᄄ
ᄅ
ᄆ
ᄇ
ᄈ
ᄉ
ᄋ
ᄌ
ᄎ
ᄏ
ᄐ
ᄑ
ᄒ
ᅟ
ᅡ
ᅢ
ᅥ
ᅦ
ᅧ
ᅨ
ᅩ
ᅪ
ᅬ
ᅭ
ᅮ
ᅯ
ᅰ
ᅱ
ᅲ
ᅳ
ᅴ
ᅵ
ᆨ
ᆩ
ᆪ
ᆫ
ᆭ
ᆯ
ᆷ
ᆸ
ᆺ
ᆻ
ᆼ
ᆾ
ᇂ
ᇞ
ᐃ
᛫
ᴂ
ᴅ
ᴋ
ᴏ
ᴐ
ᴓ
ᴨ
ᴪ
ᴳ
ᴵ
ᴷ
ᴺ
ᵃ
ᵐ
ᵒ
ᵗ
ᵝ
ᵞ
ᵦ
ᵧ
ᵪ
ᵶ
ᵹ
ᶲ
᾽
᾿
῾
‐
‑
‒
–
—
―
‖
‘
’
‚
‛
“
”
„
‟
†
‡
•
‥
…
‧
‰
‱
′
″
‴
‹
›
※
‾
‿
⁁
⁃
⁄
⁎
⁓
⁗
⁰
ⁱ
⁴
⁵
⁶
⁷
⁸
⁹
⁺
⁻
⁽
⁾
ⁿ
₀
₁
₂
₃
₄
₅
₆
₇
₈
₉
₋
₌
ₓ
₣
₤
₦
₩
€
₱
₳
₵
₹
₺
℃
℅
ℇ
ℋ
ℍ
ℏ
ℑ
ℒ
ℓ
ℕ
№
℗
ℙ
ℛ
ℜ
ℝ
℞
℠
™
ℤ
℧
ℬ
℮
ℰ
ℱ
ℳ
ℵ
ⅅ
⅓
⅔
⅗
⅘
⅙
⅚
⅛
⅜
ⅰ
ⅱ
ⅲ
ⅳ
ⅴ
ⅵ
ⅶ
ⅷ
ⅸ
ⅹ
ⅺ
ⅻ
←
↑
→
↓
↔
↕
↗
↘
↙
↝
↦
↷
↼
⇀
⇄
⇅
⇆
⇇
⇋
⇌
⇐
⇑
⇒
⇓
⇔
⇝
⇨
∀
∂
∅
∆
∇
∈
∊
∋
∏
∐
∑
−
∓
∕
∖
∗
∘
∙
√
∛
∝
∞
∟
∠
∡
∢
∣
∥
∧
∨
∩
∪
∫
∴
∶
∷
∸
∼
∽
∾
≂
≃
≅
≈
≊
≌
≍
≏
≐
≑
≒
≙
≡
≣
≤
≥
≦
≧
≨
≪
≫
≲
≳
≷
≺
≻
≽
≿
⊂
⊃
⊆
⊔
⊕
⊖
⊗
⊘
⊙
⊞
⊟
⊠
⊣
⊥
⊿
⋃
⋅
⋆
⋘
⋙
⋜
⋝
⋮
⋯
⌀
⌈
⌉
⌊
⌋
⌜
⌝
⌢
⌣
⍴
⍺
⎕
⎯
⎼
␣
①
②
③
④
⑤
⑥
⑦
⑧
⑴
⑵
⑶
ⓒ
ⓕ
ⓝ
ⓡ
─
│
┅
├
┤
┬
┴
═
║
╪
╳
░
▒
▓
■
□
▪
▫
▬
▲
△
▴
▵
▶
▸
▹
►
▼
▽
▾
▿
◆
◇
◊
○
●
◦
◯
◻
★
☆
☉
☓
☺
♀
♂
♢
♦
♪
♭
♯
⚫
✓
✕
✜
✴
✶
❖
➁
➔
➝
➢
➤
⟂
⟦
⟧
⟨
⟩
⟵
⟶
⠙
⤳
⦁
⦵
⧧
⧸
⧹
⨁
⨂
⨯
⩒
⩽
⩾
⩿
⪅
⪆
⪕
⪖
⪡
⪢
⪯
⬄
⬜
⬡
⬢
⬰
⬽
ⱔ
ⱪ
⸱
⿿
、
。
〈
〉
《
》
「
」
【
】
〔
〕
〖
〗
〜
〝
〟
あ
ふ
り
ア
カ
メ
リ
レ
・
ー
ㅣ
ㆍ
㎍
㎖
㎛
㎟
㎡
㎶
一
丹
倫
关
参
味
囊
射
延
方
气
汤
注
消
液
清
温
潜
热
片
瘀
瘟
益
祛
粒
红
肝
肾
胶
脉
艾
节
芎
荣
血
补
败
颗
饮
骨
꞊
ꞌ
ꞵ
ꞷ
ﬀ
ﬁ
ﬂ
ﬃ
ﬄ
﴾
﴿
︰
﹒
﹚
﹛
﹢
﹣
﹤
﹥
﹩
％
＆
＇
（
）
＊
＋
，
－
．
／
：
；
＜
＝
＞
？
［
］
＾
＿
ｃ
ｉ
ｍ
ｐ
ｖ
ｗ
｛
｜
｝
～
｢
､
･
ｱ
ｵ
￡
￥
￦
￼
𝐫
𝐴
𝐸
𝑁
𝑃
𝑑
𝑒
𝑓
𝑖
𝑛
𝑜
𝑟
𝑡
𝑥
𝒆
𝒙
𝒞
𝒟
𝒢
𝒩
𝒪
𝒫
𝒮
𝒯
𝔇
𝔉
𝔐
𝔹
𝕊
𝕜
𝖱
𝘗
𝛆
𝛼
𝛽
𝜀
𝜂
𝜃
𝜅
𝜇
𝜌
𝜒
𝜖
𝜗
𝝁
𝟀
𰀎
##a
##l
##d
##r
##c
##h
##e
##o
##s
##t
##0
##1
##3
##2
##5
##9
##m
##w
##p
##i
##n
##v
##y
##6
##8
##4
##±
##b
##u
##g
##7
##f
##°
##k
##z
##ⅰ
##x
##q
##j
##≤
##©
##β
##→
##×
##µ
##μ
##∗
##≥
##⁻
##⁺
##÷
##∕
##™
##®
##₂
##α
##ß
##γ
##η
##½
##∼
##₄
##δ
##£
##∙
##¹
##₉
##º
##₆
##₀
##∶
##₁
##₋
##₃
##´
##⋯
##↔
##⁵
##↓
##∓
##ł
##⁴
##⋅
##ⅱ
##˚
##═
##≈
##˙
##ε
##€
##³
##⁶
##²
##ⅲ
##φ
##₅
##⩾
##∧
##∘
##∆
##ｱ
##о
##τ
##⁰
##𝑡
##𝑟
##𝑒
##𝑛
##𝑑
##₇
##¬
##♂
##⁸
##ø
##∩
##ρ
##ﬃ
##ﬁ
##ı
##ϕ
##−
##σ
##ι
##＜
##●
##↑
##⁄
##＞
##←
##ω
##⁹
##℃
##≡
##κ
##⩽
##≦
##ζ
##△
##π
##¯
##ч
##χ
##㎛
##ϵ
##ƙ
##₈
##¢
##ℓ
##∅
##∣
##⁷
##ɑ
##с
##п
##⊂
##∫
##≃
##ə
##◦
##λ
##ŋ
##⋆
##æ
##ﬂ
##├
##～
##⊥
##т
##а
##ν
##к
##đ
##₺
##ℏ
##≅
##ˤ
##─
##м
##θ
##∴
##ο
##ς
##≧
##е
##ｉ
##ｖ
##⬜
##≪
##ɛ
##≫
##∖
##∞
##∥
##˜
##␣
##¸
##＝
##∝
##▸
##ш
##и
##в
##н
##і
##˘
##⊗
##∑
##р
##у
##ю
##ь
##ⅻ
##♀
##√
##υ
##⊘
##ξ
##¨
##ː
##＋
##þ
##ѱ
##≳
##ʹ
##⍺
##▬
##ƒ
##□
##∋
##ˇ
##ƞ
##¼
##ψ
##℅
##ˮ
##ˆ
##ⅳ
##я
##ª
##∈
##ᶲ
##¥
##ᅰ
##ᆨ
##ʃ
##╳
##↷
##ℝ
##ﬀ
##▪
##ⓡ
##œ
##ɔ
##≲
##⋮
##า
##ว
##ɵ
##⊕
##▒
##∪
##΄
##л
##∷
##ж
##˃
##○
##˂
##▵
##ᵝ
##˝
##᾽
##⇋
##ꞵ
##⇒
##є
##ð
##┤
##ꞌ
##ф
##ʂ
##𝛽
##⪅
##⎼
##ℇ
##ᅴ
##ᄒ
##ᅡ
##ᄆ
##ᅧ
##ᆫ
##ᅵ
##ᄌ
##ƭ
##˞
##ȥ
##⋝
##ᅨ
##ᄉ
##ᅩ
##อ
##ง
##⊆
##⬰
##д
##⊙
##│
##⇔
##⪆
##΁
##٠
##☉
##⧧
##⪢
##⇇
##ɚ
##ɪ
##ᅭ
##ᄋ
##ᅦ
##ᵧ
##リ
##メ
##カ
##↕
##฿
##⧸
##∂
##ᅥ
##ᄇ
##ᄀ
##х
##↦
##ц
##ᅟ
##⇑
##⇓
##г
##⇌
##ʊ
##ᴋ
##∊
##ө
##⊟
##ᆷ
##б
##ᅢ
##⊃
##ᆼ
##ᅮ
##¤
##ʘ
##ħ
##ɸ
##℞
##⊖
##ᆯ
##ก
##ใ
##ต
##บ
##ʒ
##⇝
##ߚ
##з
##ᄃ
##⟶
##ˑ
##ﬄ
##⿿
##⨯
##ᄅ
##ᅬ
##ᆪ
##≣
##▼
##ᅳ
##⊠
##ि
##र
##ण
##ᅪ
##≷
##↘
##ʎ
##ᄎ
##΍
##☺
##≽
##٥
##ĸ
##℧
##≐
##ʁ
##⩒
##ᴓ
##ɣ
##ⅷ
##┴
##٢
##٨
##һ
##𝒯
##ل
##ع
##ر
##و
##ⅴ
##ℒ
##ʔ
##⇄
##■
##≒
##➔
##∇
##ʼ
##≿
##⇀
##ⅵ
##⅓
##⎯
##ϱ
##ᅯ
##∀
##ѳ
##ߝ
##⬢
##ⅸ
##⌝
##ᴵ
##ᴺ
##ᴷ
##ᵃ
##ㆍ
##ˠ
##⟵
##ǁ
##ा
##ल
##क
##♦
##ᆩ
##ⅶ
##≊
##ѕ
##ɂ
##ɩ
##ϖ
##∏
##ⓒ
##₌
##☆
##א
##ש
##י
##ҡ
##ᵐ
##ӏ
##𝑖
##ɒ
##ɷ
##ɓ
##΀
##ᄄ
##ᇂ
##ᴐ
##ℜ
##˭
##≺
##░
##ϒ
##ᅲ
##ᄂ
##♭
##ᴪ
##⅔
##ᵒ
##₤
##♯
##ⁱ
##➝
##￥
##ѵ
##𝜃
##ʰ
##𝒆
##˴
##ह
##⊣
##ᄁ
##ｍ
##١
##ᆻ
##ϑ
##↝
##ϲ
##𝒞
##ǀ
##ϭ
##ƛ
##ʱ
##ｵ
##┬
##∽
##ⅹ
##ᴂ
##⋙
##ℳ
##ᆺ
##▿
##¦
##¾
##｜
##ɶ
##☓
##ᵗ
##℠
##ҫ
##ا
##ف
##ɨ
##ʌ
##ɤ
##ᆸ
##ƴ
##ˉ
##𝑁
##᾿
##ϰ
##ɖ
##𝜀
##₵
##⧹
##║
##ȼ
##ᅱ
##ⱪ
##②
##ǝ
##✕
##ɕ
##ɹ
##№
##ᆭ
##ϐ
##✓
##ͻ
##ʷ
##⋜
##ₓ
##ㅣ
##˄
##⋘
##♪
##ℱ
##ȣ
##∠
##∟
##＾
##ͳ
##ฟ
##น
##𝑓
##𝑜
##ᄑ
##ʏ
##ふ
##﹥
##٤
##ү
##٩
##﹢
##↼
##แ
##ล
##ะ
##ข
##ภ
##พ
##ย
##ร
##ป
##เ
##ท
##ศ
##ไ
##ـ
##ʲ
##ʉ
##₩
##΃
##₣
##↗
##ⅺ
##ᆾ
##ɐ
##℗
##ℤ
##⇆
##э
##ɬ
##⊿
##ᄐ
##қ
##⌀
##⬽
##ћ
##ᴏ
##≍
##ɮ
##ー
##￼
##⌢
##▴
##ｐ
##𝛆
##د
##ت
##↙
##﹤
##ɾ
##٧
##⨂
##⬡
##≏
##ᄏ
##⇐
##レ
##㎍
##ʐ
##⦁
##⪡
##◊
##ᇞ
##𝜅
##⌣
##ɦ
##ʺ
##꞊
##ɯ
##ℵ
##ʋ
##ꞷ
##ⁿ
##ј
##𰀎
##▓
##⩿
##օ
##◯
##ɱ
##ti
##er
##on
th
##en
##es
##ed
##in
##al
the
in
##or
##at
an
of
##an
##it
##tion
##as
##ro
and
##ar
##ic
##is
##ent
##re
##ec
##el
to
##ing
##ation
##ul
##et
##ol
##om
##ac
##ur
##os
##ith
with
##us
##id
##ve
##le
##ati
con
st
##ly
##th
##ig
##ere
##ter
re
for
pro
##il
##em
as
##am
##ts
##od
##ess
was
##ow
##un
##uc
##ate
##if
##ated
##ut
##ce
res
is
##um
ex
##ion
##im
on
##tr
##oc
were
##op
##ab
##tic
##ity
##ot
##ir
ch
##ents
com
ac
##ain
al
##ad
##ag
##ys
##ver
##ud
##og
be
that
##ell
##ap
or
wh
by
##rom
##ical
##ant
##tin
at
##igh
##ine
pr
pati
de
su
comp
tr
##ib
##ment
##ted
##mp
##vel
ad
dis
##ff
##ase
inc
sp
le
ne
we
##ay
per
this
##ure
us
patients
##ip
from
##ial
sh
are
##qu
un
en
##ch
##ence
##tive
##pp
stud
##ign
##iv
se
##iz
##ress
##orm
ass
##ific
exp
##yp
cell
rec
ind
##fer
##ies
##ous
##te
##ers
##ations
met
##ge
he
##ens
eff
##ph
##ans
no
##ia
##ort
##tor
not
##rou
pl
cl
##oun
##tiv
ph
ab
##ting
##ore
inf
di
##ons
resul
pre
imp
##ary
##ition
sign
##ect
resp
##ular
cont
##enti
##ear
##est
ev
car
##oth
ob
gen
inter
##cl
##ased
pos
am
dif
co
##ding
par
##reat
rep
me
bet
##ight
##00
##olog
high
##erm
rel
##ast
##der
study
##st
##ose
##able
results
can
##ep
incre
app
##roup
##ese
##ance
ha
trans
signific
group
##ative
af
##all
sub
##ath
differ
meth
##yl
##iti
##usion
reg
##low
##ich
significant
##enc
sur
these
##age
##and
med
str
mod
cons
##one
##ied
##ue
##ally
sc
##vi
date
##rol
anal
##duc
int
##ved
##ression
##ong
##we
pres
##ist
ar
##ection
##ach
compar
after
##end
cells
det
im
##ound
##ther
##lo
##ween
between
##our
##ug
method
10
which
have
spec
##atin
show
cor
##ide
mic
all
##ual
activ
##oci
##ub
##ak
##pl
than
inv
level
mon
##ction
##ges
there
##ros
treat
but
tw
##yst
##ator
fol
##entr
##ive
##ater
low
##ects
##ari
ag
##ard
##ates
anti
dr
##ome
##ost
##ill
##yn
##ely
##ected
has
year
fac
##tein
##alu
##form
hyp
associ
##osis
control
##ective
##ases
##ech
##tim
tim
##act
dec
chan
dur
##per
treatment
##lu
##dition
##vely
using
##anc
##ft
##ri
##ility
##unction
ca
##se
##ree
##so
had
##na
more
analys
##ating
col
it
two
##cr
##ass
##ox
been
##ulation
##ures
over
ser
##lic
##iss
dat
des
up
clin
##cer
may
##ized
concl
protein
also
assess
##out
fin
both
li
##ease
out
##mun
respons
red
##amin
12
##tions
syst
##cess
##velop
id
bi
follow
##ame
##urr
##ack
##yt
20
develop
fe
dep
##tal
##agn
during
##uld
##ormal
##ium
man
el
##ym
##ct
meas
##ild
mg
##hib
##ital
##cc
##uced
used
increased
data
their
##ob
##ult
##ven
incl
other
conclusion
non
function
##erap
ins
methods
rem
##acter
clinical
compared
one
##atic
present
##aph
patient
##ond
under
min
system
es
suc
time
how
##ail
##ained
sug
obs
pt
heal
associated
ris
##br
factor
includ
##ogen
##atory
evalu
##ism
contr
##ays
end
sm
##ological
sim
vari
significantly
po
fr
##und
##gen
analysis
br
disease
cr
##ite
##mon
##ymp
gl
acc
typ
##ogr
qu
##ace
gr
##itor
##ber
perform
levels
health
indic
pol
##ax
##ments
produc
##tern
expression
op
##ior
model
##osp
risk
##entif
use
supp
##her
form
conc
##ne
blo
well
activity
##itive
##adi
blood
##ew
obser
adm
##rop
ml
##ities
##ecti
found
##idence
dem
##gr
##ile
##ole
##etic
normal
inhib
num
identif
##uct
##ement
##ants
##ane
##ici
##ization
showed
15
diagn
##ential
##ever
##row
however
11
studies
##yd
determ
mul
left
decre
19
##ish
when
sec
pot
effect
##tig
##ute
most
##ently
syn
##ple
##let
post
##val
##ectively
ep
hosp
age
immun
effects
##oid
##di
exper
years
##ors
hospital
partic
##ugh
##ale
impro
intr
examin
##ution
prov
##ograph
different
##ology
##arg
based
hum
concentr
therap
##action
##ural
##ix
##onstr
##etr
##ences
care
inves
def
investig
sel
tum
response
##ency
higher
only
bl
specific
##ery
its
##erg
##inal
##ined
em
val
path
##esis
##ains
##own
ol
right
so
00
rate
into
##ren
##art
our
ap
##ron
cancer
corre
##ily
##oph
##gh
##ions
ext
14
##amm
pred
##ability
total
##av
##til
three
surg
wor
##ited
acid
char
##ible
his
hem
gener
pat
##use
new
cal
13
##ds
neu
loc
groups
30
number
##ark
##res
##lear
##omen
##ok
##rough
condition
##ood
##its
##aining
fur
pul
flu
changes
cardi
appro
##ang
finding
##round
##ung
occ
##omy
sam
##tical
induced
month
lower
##ize
observed
##ature
back
who
##ks
contin
24
##asc
ox
name
##echan
mean
##af
##ured
related
fir
demonstr
day
inj
##les
repor
del
##asm
sens
##ten
##view
tre
bas
25
human
##arge
##par
term
##oma
through
addition
lik
child
character
tiss
mechan
##vers
##cop
phys
mo
##tid
pain
##ilar
such
##ived
##cep
##cin
struct
type
import
##ats
##imal
mm
respectively
100
95
process
##eter
micro
medi
##lex
conf
first
cases
##tained
need
##ough
hyper
##echn
##ps
mol
within
obj
findings
increase
il
18
tes
those
among
ct
main
radi
##air
##ould
pe
techn
grow
##ulated
kn
aff
##fore
disc
##iqu
##ental
##uction
##led
16
performed
gene
correl
50
##osed
pm
##roph
multi
small
conclusions
mem
without
##vious
pop
prim
##eptor
factors
cd
##tit
drug
peri
##och
ear
##ef
development
wee
requ
fre
##ade
##osph
curr
ma
##ful
long
prop
prob
##endent
could
##ness
##tory
##ov
subj
lung
receptor
pattern
stim
sugges
##ivid
invol
outc
do
tem
##otic
sol
lim
infection
lab
ps
predic
##atus
hyd
arter
previous
similar
##ascular
##ders
coll
ii
my
test
##ody
##ced
05
200
potential
cyt
dose
mus
ret
days
fib
line
antib
hr
less
##ines
##tom
while
prog
kg
##ice
evidence
review
##ex
frequ
##ational
role
sin
poss
vis
##ues
neg
where
did
rece
##ages
cap
##iven
vol
##ider
##ake
sever
acute
treated
positive
##bin
##ground
will
calc
chest
each
##istic
molec
some
background
##over
experim
##tivity
##ival
sk
medical
therapy
aim
extr
##oper
##gan
important
period
##ension
##ha
including
bec
appear
av
##olic
prot
tub
##ether
##ock
ran
women
set
17
##ateral
status
further
bin
children
due
months
ur
identified
##orph
40
abs
iv
pur
report
if
os
##ms
##ason
mechanism
##eng
##omes
cult
great
##vention
press
plan
symp
##ning
diagnosis
growth
sequ
ul
contrast
mal
fam
decreased
monitor
second
##ise
fl
tumor
abd
assessment
fem
reported
initi
consider
ci
cm
##ick
##veal
##up
ele
##ty
##ately
four
##istr
##emia
er
mr
plasm
##ening
##ores
##int
vs
reveal
##oh
obtained
tissue
sampl
work
##gest
##ross
sing
old
##ving
mice
cy
prom
##ically
##ire
##itis
they
surv
fail
##ymph
suggest
vir
chem
vit
##crib
##jor
mark
individ
major
01
##cle
##med
clear
ren
lymph
measure
##ication
techniqu
symptom
ben
##pha
common
differences
mut
admin
##atis
##ission
##iel
da
hour
gluc
complex
particip
##otyp
dire
##ality
##ulin
design
##az
rh
##amine
given
change
reduced
surgery
following
qual
isol
individual
single
pers
distr
inform
dna
##iter
##are
chron
##ric
##zym
##yz
bil
mater
history
improve
##ocyt
##ified
60
21
primary
##entric
ed
surf
gu
objective
lip
##ished
phosph
proced
metab
serum
early
##ety
provid
rats
##lications
presence
about
mat
rati
##ites
##acy
size
approach
alth
beha
although
##amic
##ressed
subjects
liver
##crip
flow
caus
##ie
heart
organ
measured
##urs
large
influ
diff
##monary
her
##ves
behavi
nuc
valu
range
class
support
chronic
hep
enh
complet
##tered
ang
##eth
lif
##rh
stable
assessed
22
mass
plac
requir
population
examination
##aneous
##earch
##ials
research
ple
hydro
##ither
ic
pressure
binding
##gf
brain
should
free
sl
bre
dl
##ength
coun
concentrations
##atal
##hip
negative
reason
##ink
##aging
species
les
##ounds
concentration
##lamm
201
lead
##ins
ref
again
current
bp
vi
##vere
she
##arm
nec
weight
##oles
samples
##ography
resist
stress
enzym
expl
##uss
##ord
##por
inhibitor
survival
renal
signal
stand
##ogn
neuro
prol
##iratory
fluid
included
seen
conditions
##asing
analyz
genes
##ateg
adv
body
comparis
##ties
plasma
synth
region
##ause
describ
beta
evaluated
##of
001
demonstrated
revealed
##erc
oper
multiple
prior
##osure
proteins
alpha
##neum
order
##oss
##ych
pulmonary
##actions
evaluate
##o2
##vir
investigated
family
developed
##cs
##ensity
diab
dependent
lo
ir
case
sus
##operative
23
ro
before
mild
##sp
##tric
##arget
aut
studied
inflamm
any
estim
##roscop
several
quality
##tis
rates
pneum
animal
dim
injur
target
##yth
medic
standard
##cent
volum
information
##ory
phen
membr
likely
bone
greater
determine
values
deg
ventric
ve
##eding
examined
tol
known
whether
##emic
weeks
##ensive
equ
failure
##roduc
28
hel
##tain
##nal
relations
sch
##anced
adj
conduc
##ield
disor
est
##ended
prof
subs
local
recom
same
surface
respiratory
##lyc
quan
##erv
cir
param
either
35
##ull
##andom
elect
determined
possible
##onal
life
thus
ratio
water
effective
##ynamic
functional
noted
commun
manag
mit
##tinal
##iver
##eptid
##ode
random
##way
te
26
general
##asis
air
##ification
der
interval
purp
neur
occurr
final
symptoms
ques
overall
reduc
resid
ec
cardiac
##ral
moder
comparison
daily
unders
##terior
relationship
received
skin
active
ms
max
phase
sw
prac
here
90
##atively
diet
dys
80
proper
##verse
asp
glucose
repres
since
polym
characteristic
exposure
##ision
##red
discuss
transfer
##uth
##orb
tube
loss
bacter
##istent
muc
mort
activation
##lement
##rem
contrib
remains
provide
molecular
##tif
foc
emp
mid
area
##eters
27
underst
severe
pa
##opl
##ian
##ool
whereas
32
difference
hypert
sal
##viron
intra
##icient
continue
detected
then
sex
mortality
elev
indep
insulin
##omic
hist
##ocytes
##itation
##osition
vers
000
because
##ostic
secre
tra
six
##ulations
very
add
toler
confir
chrom
45
elec
strong
##ke
##otherap
avail
##onic
controls
##ption
distrib
36
dom
statis
vitro
##ands
##itivity
##eration
amp
improved
##lication
production
##ude
##ient
increasing
action
surgical
psych
atten
exc
against
##ists
##abl
ach
association
head
purpose
02
##opath
muscle
pub
##cept
scre
hours
short
##icity
reduction
super
many
rr
being
##aw
##iving
##istration
hypoth
combin
direct
##eline
continu
cent
##ema
five
##ule
artery
##equ
##ocial
involved
##ellular
##verage
part
centr
##gram
outcomes
environ
various
men
off
site
29
##ules
##ae
male
physical
70
technique
outcome
shown
transcrip
##ometr
recent
tox
compon
31
att
responses
temper
imaging
good
doc
##gn
genetic
management
soft
##anged
##ectiv
formation
participants
##active
##ward
nucle
##uted
injury
performance
abn
systems
volume
stage
##yr
experi
##ortic
analyzed
success
##eu
pc
##ised
##old
##xim
structure
decrease
##rome
##elial
identify
##ording
preval
electr
effusion
##oses
models
via
##ographic
carb
thick
##otherapy
##ocy
##pt
abnormal
##uk
morph
membrane
times
bel
death
differenti
now
index
##reg
self
position
##ey
37
oxid
nm
cath
##ops
##line
##ination
poor
##ount
33
##lor
##ocard
##app
particular
setting
##day
place
enc
vascular
strateg
et
##ably
therefore
magn
tak
establ
03
##ologic
##amp
metabol
mechanisms
parameters
procedure
carcin
value
rap
like
state
cycl
gas
baseline
##elet
mac
deliver
circ
##ochem
frequency
##als
##ns
04
nan
##bl
proble
ventricular
dist
##ust
stimul
previously
go
##vent
48
viv
oral
administration
correlation
block
followed
behavior
##eutic
##etes
regul
##wor
down
virus
##iotic
##ene
##iciency
cv
properties
visual
##olution
better
ver
##anding
nit
environment
evaluation
social
scale
ng
lesions
##eric
fat
pap
breast
synd
prec
eth
##bs
##atures
##plant
healthy
vivo
resistance
available
result
199
##ysis
rele
required
atr
sensitivity
achie
repe
##ont
week
remo
ey
saf
cross
fil
release
##vic
allow
indicate
cere
events
disch
34
##ygen
##li
bm
approxim
investigate
novel
incidence
admit
##tically
##ergy
characteristics
##tex
vac
refer
kin
##bc
75
moderate
##tial
phot
benef
##ancy
##vice
accur
##tegr
cop
extrac
pregn
##ending
nut
induc
star
question
tested
amin
cre
intervention
percent
diabetes
ultr
animals
peptid
urine
optim
##iat
##ectomy
##ually
fract
hiv
cp
inhibition
made
##ner
##odies
impair
port
##urse
surve
assay
conducted
rapid
considered
central
sour
##ulf
##opt
##els
valve
ax
complications
prevalence
##vement
detection
aortic
comb
ra
would
dise
enzyme
score
##ouse
hom
sample
##lied
shif
metast
##bp
relative
female
presented
effic
therapeutic
dop
tab
link
##ces
reaction
median
culture
perip
average
las
mediated
isolated
measures
wall
recomm
##ythm
pd
temperature
##inary
##ogenic
initial
experimental
exhib
dil
sle
prepar
##ters
underw
##ogenesis
analyses
55
prolif
38
mrna
##ances
length
##ressive
larg
##roc
##ides
##rogen
transplant
individuals
##mit
underwent
coron
inflammatory
highly
home
independent
according
rat
##tle
glyc
integr
sites
recurr
##ially
##astic
expressed
##tine
containing
diseases
bal
angi
indicated
impact
##ortion
##omp
syndrome
areas
##otype
thir
##iological
##therm
throm
pharm
##go
oste
##ids
##till
cause
types
density
##ove
injection
extrem
intrac
##lob
admission
combination
correlated
##ylation
last
full
distribution
derived
##urn
isch
applied
least
elevated
net
##ind
approximately
ill
##resp
represent
subst
efficacy
field
##inc
sequence
valid
recover
needed
cs
##hyd
##eds
poly
##ibility
ability
secondary
limited
##ave
##yro
caused
##aps
light
them
invas
##pr
ble
##ovascular
coronary
edema
##mg
pleural
influence
subse
even
oxygen
42
energy
acet
##pec
consistent
peripher
##ious
diffic
##iting
focus
##medi
rad
regression
impl
##pper
mar
##itu
program
##lation
apopt
content
drugs
##ales
adult
nor
smok
know
mc
##ones
complete
##ropri
cc
##onia
concer
above
produced
additional
sod
diagnostic
np
##lying
65
cur
few
versus
upper
subsequ
##vant
##ominal
##abil
practi
tablet
still
cri
##bral
##terol
orig
tissues
##roscopy
##enced
##oscop
##imum
kid
lines
tumors
impression
might
dam
##reath
hc
demonstrate
##rosp
99
##fusion
exam
kidne
panc
food
md
quantit
##uble
sinus
##utes
section
introduc
discharge
measurements
controlled
stimulation
##ables
##10
does
heter
youn
useful
amino
aden
##rees
coh
unc
mix
collected
side
criter
##changed
diss
course
breath
play
disp
guid
##ways
thromb
lateral
##rition
ns
antibiotic
##thermore
furthermore
young
##ators
##odes
epid
##ising
emerg
view
##ling
lig
##rolog
##ma
##olar
bir
transcription
##tors
open
colon
monitoring
separ
##cence
39
adul
enhanced
tests
##izing
immune
improvement
sed
arr
lat
util
occurred
ov
scores
trials
activities
liter
##acity
regions
sil
unchanged
seg
peripheral
spect
often
degrees
o2
##ecting
progn
pp
described
features
##istered
abdominal
icu
observ
interaction
alc
educ
combined
appropri
hal
##otox
medications
##inant
duration
confirmed
43
aw
pcr
##bers
exerc
characterized
carr
lit
access
##truc
receptors
chall
na
stool
postoperative
trial
bs
pathway
##tib
##tt
agg
hip
hypertension
##work
delivery
regulation
sleep
cellular
comm
infant
ster
today
##otor
##sh
44
nurs
##uture
ner
##ytic
suggested
##eness
patterns
##ched
##ele
affected
pancre
nat
##ledge
hand
98
suggesting
##uff
##orrh
clip
##ocyte
##opro
successful
##igr
cogn
calcium
##rosis
alcoh
recogn
##ache
electro
structures
##ying
experiments
knowledge
shift
hct
prost
##orption
resulted
appears
lack
anterior
ig
able
labor
hy
iii
41
bilateral
peak
oc
across
strains
cat
##oint
images
plat
biom
meq
mir
artic
##vices
reli
products
rna
hemat
rhythm
disorders
neurons
##iatric
increases
record
##nf
key
nutrition
call
##ened
endoth
epith
##utions
screening
eight
suggests
##ert
spectr
slight
##omas
##umin
synthesis
depression
bow
venti
biological
cardiovascular
understanding
sensitive
##pre
criteria
alter
respond
defined
ess
materials
bar
##ored
dynamic
##set
##estinal
displ
catheter
prosp
##enting
sodium
antibody
processes
pharmac
amount
pac
tool
chlor
lob
##yc
neut
retrosp
desp
adults
##ta
##yroid
46
##ubated
inhibited
despite
placement
training
##omal
##aft
sounds
mental
##king
myocard
mel
52
horm
malign
provided
##trate
selected
tas
outp
stro
##ectives
hd
pneumonia
altern
cost
antigen
cx
##ubation
##ivers
##orbid
carcinoma
step
consum
ven
##de
antibodies
##inetic
##ochemical
##other
bowel
techniques
##ayed
accum
lay
##ogene
47
exercise
pow
gi
compounds
72
help
interactions
##aff
practice
proliferation
od
##ged
##bo
##onding
lact
alone
recently
arterial
leuk
metabolic
load
espec
linear
##da
marked
##ocol
promo
especially
mes
##esth
fluores
96
##occ
placed
literature
kidney
cer
##etal
97
future
aged
##arding
point
##function
56
color
questionna
difficult
##onch
chain
strain
established
read
corresp
currently
proposed
indication
scan
07
ped
##12
doses
##kn
##ii
disorder
toward
sum
mouse
progression
alb
sulf
excl
54
##ints
apoptosis
tf
require
##atitis
##isted
##ture
application
log
hemod
internal
##ld
sem
depend
##rine
note
discussed
06
ant
##upl
##oxid
fold
alcohol
rs
##bi
see
onset
near
sn
53
don
hydrox
grade
appropriate
image
stroke
aspir
damage
methyl
49
suppor
##ems
paper
##entially
##grad
refl
glob
cohort
administered
##agon
08
degree
intact
##phal
lipid
glut
##cler
phosphor
though
top
fibr
testing
birth
spont
infected
ever
affect
##isting
signs
fer
spe
den
solution
##ather
58
agents
prevent
populations
59
traum
##take
systolic
strength
infar
51
chemical
cann
ten
transp
objectives
critical
distin
##agen
eng
##ument
##50
reduce
67
adh
provides
neurolog
iss
57
##utaneous
##rs
seven
necess
lum
feeding
survey
fraction
implant
infusion
##ressing
mri
simple
statistically
biops
repl
protocol
64
differentiation
estimated
sd
kinase
bo
suff
balance
upon
components
signaling
##otid
older
procedures
taken
ht
##ibr
tc
regarding
chann
tempor
nerve
physici
dig
##olesterol
ech
pig
adverse
community
adap
calculated
activated
having
##ochond
none
cognitive
sig
hp
moreover
##bry
wean
polymer
real
##orax
absence
remained
throughout
ampl
##oids
variables
series
pregnancy
proportion
fas
abdomen
##uded
white
##ergic
##loy
undergo
basis
##oplasm
infer
spontaneous
source
highest
facil
##arb
diagnosed
##aring
gast
150
microm
safety
markers
##ils
##oral
attr
material
peptide
states
plant
severity
##anol
bro
little
chol
##atur
intake
hepar
cytok
pulse
dysfunction
bio
##opathy
hs
##ustr
electron
slow
##ics
tom
##ulate
migr
##etry
please
much
examine
##amma
recovery
situ
hepatic
interven
ion
recorded
strategies
uptake
structural
diam
capacity
nas
85
myocardial
ld
embry
##ople
frag
unit
##arch
##urg
exposed
anx
along
repair
started
62
resulting
yo
atrial
stem
particularly
##ochondr
##orac
##aking
posterior
maximum
randomized
##imens
achieved
convention
medium
unkn
var
bor
unknown
ultras
bacterial
molecules
infections
irr
clus
##icial
fracture
susp
functions
past
prote
hemorrh
cultures
##ula
##ethyl
confidence
catal
mitochondr
component
quantitative
labs
adjus
alk
##ea
wid
lear
essential
induction
underlying
auth
label
63
68
cycle
lesion
##ector
invasive
origin
problems
metabolism
chec
pic
detect
location
heparin
motor
later
66
acids
##trans
inflammation
##ermal
whole
importance
detail
attem
fix
liqu
##me
interventions
##ense
##oster
sr
##arr
##fac
chromos
reproduc
sci
##uring
conventional
##ered
rt
challen
##etric
##used
people
experience
pel
prefer
##oz
##encing
cad
pair
acqu
##itr
##omer
trig
##uter
platelet
##oman
compare
reviewed
500
##eti
lungs
transm
ga
##gs
chemotherapy
##ina
tog
continuous
appar
natural
units
best
pathways
##adder
act
multiv
include
vas
polymorph
ge
base
##ariate
subsequent
variation
##ontal
together
resistant
sequences
dm
neon
##istry
##ogenous
countr
##ytes
late
##isms
advanced
##utive
trac
weak
specificity
gastric
cerebral
antagon
##axis
gamma
endothelial
code
##illary
##nas
summ
##iety
hypox
removal
relatively
73
cholesterol
##othorax
198
epis
proph
experiment
mil
76
##que
remain
clos
vess
cle
replac
transport
eyes
enter
restric
94
distinct
consequ
radiation
##brid
ds
nuclear
##ots
portable
##ams
leaf
hepat
indicating
diabetic
78
##arc
goal
##ession
ss
systemic
reach
hb
males
transition
##osa
laboratory
treatments
terminal
mutations
transform
females
##ier
bronch
emb
power
doctor
bleeding
enhanc
wave
carried
##ench
describe
pass
cav
prospective
cerv
adequ
terms
61
##idine
92
##venous
environmental
##ceptib
69
##mediate
##ets
minimal
const
##ru
relevant
antibiotics
radiograph
77
frequently
substan
mamm
##ulating
carbon
modified
09
domain
needs
exhibited
resection
device
below
rest
larger
88
74
linked
quantif
##rix
adren
host
##fort
##hg
prophyl
mitral
contact
accuracy
shows
##eff
##cine
susceptib
done
tnf
extent
##pa
far
tach
##inity
cys
hg
##activity
trend
half
double
cos
##yg
questionnaire
problem
limit
third
receiving
placebo
##emb
reports
stre
93
spinal
intensity
inhibitors
atp
##onomic
##elling
cd4
slightly
##aged
##otypes
hypothesis
orient
infants
ck
71
magnetic
##asts
macroph
pneumothorax
mur
mechanical
until
##enic
soci
##ars
national
86
##ococc
83
##encies
##man
nod
interpre
drain
84
81
##roscopic
datab
pal
completed
education
tip
##truction
alg
120
cervical
82
special
woman
##aine
predicted
##itude
every
##pm
wild
##ca
toxicity
lv
neck
##oding
secretion
lobe
##inated
coupl
measurement
tumour
map
defin
smoking
mainly
bur
comments
adoles
urinary
longer
sa
altered
motion
degrad
distal
##hood
pg
bacteria
##co
recommend
contribute
corresponding
necessary
developing
abnormalities
causes
offer
eg
##ired
implement
promot
clinically
norm
selection
aimed
identification
basal
gastro
composition
contex
vitamin
##tation
yield
matrix
##erative
employ
intracellular
regard
arth
stimulated
antic
##azole
evolution
##ymm
spati
wide
fever
physiological
regular
selective
prevention
admitted
global
except
dimension
##oprotein
retrospective
##onin
gran
imm
##ights
cryst
##tially
##inf
##olved
##ometry
bound
minutes
strategy
##ings
satis
designed
79
students
segment
asth
yet
supplement
subc
service
tm
87
frequent
incor
nursing
proj
epithelial
##2o
attention
liquid
##elect
##ills
ter
eas
memory
diameter
wbc
##ophil
isolates
impaired
pf
89
alternative
progress
##ident
ta
##ycard
recombin
eryth
percentage
anxiety
cho
services
##la
ultrasound
sten
directly
##ecutive
thorac
conn
viral
##orbidity
asc
world
infil
err
network
grad
##ectiveness
revers
categ
ure
differential
recurrence
##amide
gtt
reconstr
##dr
ste
iron
movement
##ady
##ape
conj
##ometric
chi
statistical
opp
eu
inp
public
graft
fo
##eral
##io2
event
effectiveness
intravenous
cand
enzymes
nine
vanc
univers
efficiency
##ering
microscopy
##obl
##itone
partial
venous
admitting
fibro
stability
check
gly
arg
maternal
around
adhes
tolerated
hybrid
##vis
##ialysis
##osyn
##tile
perf
transplantation
##11
occur
reson
neurop
regulated
caro
anesth
##ergies
##bor
resolution
famil
vein
vaccin
hormone
leading
cough
prostate
facilit
hypot
height
gel
means
ca2
reactive
por
##urb
##imen
##esized
school
##pler
##land
approaches
instit
##less
##rup
systematic
once
center
##enz
##ique
repeat
prolong
generated
obes
introduction
mob
hemorrhage
accumulation
americ
##activ
involvement
reference
appearance
candid
##ocl
communication
rare
aer
recommended
coli
leg
changed
##ocal
rou
##ively
strongly
rib
fed
obesity
thickness
temporal
significance
fall
superior
##atives
trauma
##ella
cas
rather
adjusted
incorpor
aort
learning
divid
continued
seiz
eye
forms
fluor
##licated
team
oxidative
generation
vent
airway
processing
genome
##ounts
biopsy
rot
context
specimens
compl
##lets
prox
ulcer
chromat
pi
sperm
predom
##truct
profil
abg
mmhg
##estern
plants
##cted
majority
91
##uts
##unc
attenu
profile
odds
feed
infarction
fatty
optimal
interview
bed
myel
tele
##bial
##ternal
sv
finally
cortex
0001
##obacter
mutation
squ
##xt
establish
kne
distress
puls
consumption
task
inhibitory
doppler
stages
interfer
##den
mt
##anes
led
determin
##izes
confirm
collagen
points
lap
hemodynamic
medicine
thyroid
##enty
##arily
search
ray
specif
leads
prophylaxis
another
ann
orth
##io
wt
prn
simult
##ellow
focal
authors
cf
lys
gender
simultaneous
##iac
##nea
twenty
##erved
wound
joint
pv
adequate
malignant
##ls
intern
mode
rab
##ception
cultured
expected
aims
publ
##resh
dog
##icard
##he
transl
dimin
pla
paras
lev
##ette
##ided
flex
agre
##esia
illness
##version
subun
must
polyp
fluorescence
cord
gre
constit
undergoing
##20
western
induce
recru
stenosis
involving
fetal
behaviour
##dle
fit
divided
assays
investigation
bili
ischemia
##ritis
staining
##arged
arm
##aryn
##ra
kinetic
##rec
ventilation
mixed
caps
fav
feeds
countries
pancreatic
##otide
reactions
##cers
asthma
predictive
seps
analog
##olip
atelect
metal
##ohist
marker
agent
haem
consecutive
responsible
constant
dietary
way
neural
potentially
published
##atient
external
attrib
cb
##ned
article
layer
transmission
##omycin
amb
##oscopy
extracellular
##orts
output
coeff
##asia
deep
prepared
benefit
immunohist
transferred
person
mitochondrial
located
##rophy
barri
##uary
iso
predict
complexes
substrate
matched
##rog
##bal
upd
resonance
delayed
nc
vital
##itable
pse
##oxide
thresh
trad
tetr
removed
microg
spl
sexual
sepsis
occl
gest
sbp
##ucle
##acts
adip
##ump
##iph
tract
##ify
##otion
inser
intestinal
operative
enrol
avoid
lac
commonly
unique
dos
specifically
plus
##enol
##ycardia
intubated
esoph
mutant
germ
##tration
produce
prognostic
ast
spine
aorta
benign
spatial
neph
reducing
tb
ful
product
secretions
variety
melan
certain
broad
reh
tend
affinity
prognosis
##most
generally
morbidity
##otrop
olig
anat
dp
toxic
space
princ
##olid
clinic
##irus
associations
pseud
##ontin
sput
residual
continues
albumin
princip
document
bladder
operation
tradition
applications
##osin
collection
prem
##ching
root
ischemic
fio2
lasix
agon
##artic
creatin
##obic
formed
ane
equal
##ange
frame
##anial
auto
regulatory
eval
manner
dry
stimuli
atelectasis
proximal
##ectin
##ias
##ives
ifn
##eletal
initially
medication
living
probably
pb
ves
allergies
multivariate
members
vel
middle
sac
questions
cytotox
core
start
oh
transf
consist
persistent
##tility
nature
extensive
heterogene
resour
##apse
sats
aggreg
oct
pan
relation
demographic
numer
bmi
irradi
comparable
##aves
force
##mic
turn
appeared
histological
regional
gh
widely
flo
fish
##phone
##53
cannot
closely
repeated
unclear
nasal
spo2
##cal
interest
decision
algor
##urys
##itary
##arian
dimensional
##ope
sent
almost
algorith
cis
preoperative
arch
recurrent
ather
cereb
issues
sputum
##eta
micros
##eal
inr
called
##ester
dc
##alian
##rot
mv
extremities
##iology
nf
efficient
fractures
ratios
##lier
occurs
soil
promoter
amounts
hepatitis
breathing
##ush
dv
degradation
bol
profession
variable
##otr
##ention
become
perc
insp
##hal
gp
advant
humans
##tre
aud
elder
##usc
laser
recip
implications
pk
##ash
relationships
conclude
igg
##30
##16
##ee
##cephal
dynamics
highl
m2
##elines
instr
substit
som
##idal
ros
##ked
retin
knee
##wise
shock
making
depart
carotid
##oon
verte
##itiz
neuronal
femoral
solid
##uls
vaccine
##elium
##itoneal
complain
tracing
ivf
rev
##opr
rob
fung
##ibly
parents
ow
classification
veloc
cortical
earlier
settings
exist
sources
pet
impairment
##ember
phosphorylation
haz
##xp
##ging
##itud
vary
##otomy
ce
antioxid
onc
##ields
##itus
taking
radical
400
fully
predominant
fusion
successfully
face
prolonged
elderly
restor
return
experienced
bond
run
##ori
##ared
emph
pyr
cu
guidelines
##crim
added
telephone
migration
alterations
maintained
frontal
mildly
apparent
independ
attemp
rabb
costs
ls
numbers
channel
phenotype
replacement
##aces
improving
300
##rel
trop
acetyl
put
diminished
metastatic
drainage
250
electroph
room
sectional
t2
deriv
pen
safe
oxide
discrim
minim
organic
phosphate
residues
mom
ke
ads
suction
alert
chromatography
##ords
assign
categor
deficiency
##osite
explore
##inate
medias
respect
tomography
molecule
account
nons
purified
du
hf
variability
nanop
profiles
randomly
emotion
defic
##enchym
##arkable
behavioral
##ycin
accurate
nic
mas
abund
##eling
gain
tolerance
hipp
csf
140
##acin
recombinant
ana
logistic
eti
wa
pericard
completely
challenge
marrow
contamin
enti
##illin
##olytic
count
subt
##ologies
biomark
aneurys
##ring
emergency
make
mor
aug
protection
##group
lc
pediatric
bran
gal
particles
obese
peptides
uv
ak
feas
requires
inferior
##jection
descrip
cluster
##oscopic
##teen
exch
estimate
complement
lapa
##asty
close
curve
comfort
yellow
promising
##ocamp
next
europ
##anyl
cover
gradi
direction
fent
##ogenetic
university
macrophages
##thesis
occup
la
degen
##char
membranes
wr
nt
##uration
cxr
absorption
elements
agreement
##ga
nh
##reh
minor
myc
band
overe
##ageal
##lobin
metastasis
trigg
requiring
plays
picc
occurrence
##mc
fif
##apping
smaller
excess
conform
##gramm
blot
cavity
sep
what
##rile
pathogenesis
##osal
pathological
database
trache
roles
wors
fragment
assist
elim
analysed
dors
jan
physicians
polymerase
fa
adher
lymphocytes
hypoxia
seems
##isation
donor
records
##ires
##osine
showing
alt
presentation
##icle
milk
rapidly
foley
##ulatory
therm
temp
satisf
warm
overexp
towards
heat
##by
diast
biochemical
##intestinal
scler
##ients
routine
ect
mmol
creatinine
europe
epidem
##h2o
measuring
compr
divers
inst
compreh
hypotension
understand
gastrointestinal
fast
usually
injuries
##itively
130
conver
nucleus
marg
ligand
hippocamp
125
mn
dogs
maintain
address
traditional
ventil
determination
##immun
##illation
##apl
##ili
compound
spectrum
##18
periods
##acent
extraction
susceptibility
morphology
interes
##ectious
protective
ovarian
inn
enrolled
perfusion
markedly
##gal
developmental
dvt
stabil
thoracic
computed
transient
enl
##taining
aspects
perce
##fs
nanopartic
##rin
beg
volun
##fa
necrosis
##15
indicates
limits
benefits
recognition
##ho
az
hund
construc
hundred
programs
##to
##isc
polic
ranged
chromosome
accept
bu
distance
##lycer
##ompan
##13
fibrobl
camp
hazard
benz
extract
##oked
igf
stent
arteries
node
##aptic
signals
adhesion
amyl
##letion
afric
##14
consolid
accompan
##oscler
concept
bolus
existing
cox
aa
##ressor
media
employed
failed
manif
tl
infectious
additionally
##wh
cyp
ip
radial
contained
fu
discover
night
gall
excell
allows
3d
theory
vag
##osterone
##reatment
##ocar
##ervation
maximal
##aline
basic
subsequently
observations
partially
cut
targets
##acted
domains
stay
adjust
##ologous
subgroup
dental
acquired
110
oil
##cents
effusions
##oring
##treated
endogenous
defects
independently
##nia
cmh2o
january
graf
artif
american
egf
##bar
##np
##oration
attending
programm
##ucid
genomic
oxidation
saline
ethanol
fibrosis
comparing
coord
##olysis
you
s1
##eg
fill
##avage
sat
remaining
lps
providing
potent
parall
chin
matter
uns
##mm
obtain
regurg
ordered
adolescents
carri
aspiration
lt
extended
##ifications
concerning
blind
physician
pool
regimen
plt
break
stom
genotype
working
practic
rich
bc
cpap
##ophys
leaflets
possibility
intermediate
##ompl
##pass
rv
##trates
##rief
##enia
tgf
varied
tp
enhance
copd
##yle
find
cancers
jap
t1
clon
##ancies
##thers
##ocation
intensive
move
fm
entire
neutral
overn
families
immunos
##ylated
microgram
tun
##ocrine
excellent
morphological
diffuse
##arrh
pulses
intervals
##ophren
correct
##ochemistry
injected
episodes
actin
possibly
##akes
ventricle
organization
take
classified
devi
healing
fund
mp
##cles
patch
drink
##ata
##ict
h2
angle
enhancement
##oglobin
resolved
##ectivity
bot
never
##ister
targeted
spectroscopy
cytokines
observation
##iform
disrup
cytoplasm
junction
hol
growing
diffusion
##tenance
schiz
mill
vessels
diastolic
epile
mi
surge
cab
##ogram
threshold
sustained
substantial
maintenance
har
##ank
expans
spectrom
lang
reconstruction
inhibit
phenomen
unable
##load
accel
peep
satur
nerv
mmp
##hr
musc
##ream
dialysis
##anging
velocity
uter
tel
symm
elevation
labeled
trach
ts
##care
##ighted
technology
spi
hydrogen
department
##treatment
thin
vap
und
pathology
##assium
sided
thirty
polar
draw
##nt
void
hcv
atrium
##rag
chf
##eting
potassium
##oglyc
##a1
neutroph
computer
whose
relax
primarily
obstruction
##acchar
progressive
fiber
ptt
##ectal
dehyd
neonatal
##cm
regurgitation
exchange
reliable
##rophic
cruc
##pine
##opic
smo
tit
##aterally
others
##atib
wal
pelvis
longitud
hospitals
nad
##esh
##oin
morphine
pip
represents
ker
nam
dilated
soluble
##ione
##ellar
bab
parallel
##eb
##ococcus
circum
##draw
preven
bypass
axis
##imer
hab
seem
plate
##ni
bul
opac
predictors
choice
stop
regen
demonstrates
withdraw
##oline
brief
##kin
elucid
consult
attach
recommendations
suitable
##iaz
perceived
native
died
element
sequencing
serious
ens
limb
##oxy
follows
preparation
thym
cortic
fentanyl
meta
##thern
phyl
international
thought
##aper
##leuk
disposition
##ivalent
##17
presents
estimates
##mitted
antagonist
fibrillation
became
cirrh
volumes
##ercul
foot
subtyp
##uit
pros
##aries
risks
promin
inclusion
swit
perme
typical
##try
smooth
##thal
##osomal
autom
oriented
channels
achieve
dopamine
tachycardia
reverse
termin
##ocardi
fixed
antioxidant
##operatively
sulfate
bases
##opa
fen
defect
##ament
diversity
complication
##rich
##stream
positively
hydroxy
##lim
extracted
##rate
receive
sensory
##elf
initiation
invasion
##rous
atheroscler
##unding
##be
depth
##urrent
wet
commands
transpor
anemia
prediction
##anth
retinal
chloride
subject
inters
green
##she
qualit
##avi
optical
analyze
##get
##read
psychological
intubation
delta
##cribed
nodes
dex
chinese
##athy
pack
monitored
##igen
mb
gab
cares
pn
influenced
sho
deficient
excre
##gans
promote
occas
murm
dele
interpretation
##yros
##ested
concern
clearly
healthcare
sufficient
implementation
presenting
neurologic
dip
sedation
vegf
##factory
antig
ranging
focused
decreases
gir
##mediately
##genic
twice
expansion
nervous
behaviors
absent
##rof
kda
ldl
1000
sched
cef
japan
commerc
excluded
nk
sampling
adjacent
tur
elic
rise
immediately
enrich
gc
concluded
largely
##eps
##hc
echocardi
sept
peg
opi
gradient
teach
decline
muscles
floor
assemb
au
parent
nucleotide
interleuk
dominant
contain
newly
p2
therapies
your
devices
##rocytes
nurses
emotional
insuff
##ows
##sheet
##uria
stor
volt
##19
correlations
gram
cham
bilaterally
consolidation
follic
##ecal
##east
##aria
synthesized
variations
clearance
##ises
discussion
detailed
mediastinal
neurological
cam
longitudinal
shape
197
fibrin
tib
lactate
3h
assigned
##ime
precurs
subunit
mother
hcc
nanoparticles
cytokine
ground
words
flowsheet
latter
##tics
suppression
metastases
##works
amt
tric
##gt
colum
contrac
##osomes
pregnant
younger
##urally
united
validated
bov
encour
##ocaine
##certain
echo
##elled
overnight
##dm
##back
beneficial
##eli
##entical
moth
skeletal
coupled
schizophren
interleukin
reflect
algorithm
localization
##ogens
##argeting
electronic
retro
bpm
##lox
metabolites
propose
probe
localized
bis
tail
ib
mouth
assum
south
competi
nitrogen
##osing
industr
expressing
synthetic
subcutaneous
interesting
##isions
##ban
magnitude
##ocarcin
visit
##itory
stomach
incubation
delay
##ements
error
##time
##ostomy
consisted
dorsal
targeting
fibers
##tingu
counter
otherwise
zn
recognized
anesthesia
antigens
pending
lam
hla
embol
##enyl
tryp
diver
##activation
irradiation
scanning
tools
lymphoma
theore
##oxyl
mono
comprehensive
sf
ile
bile
tubercul
elis
transfusion
contribution
identical
py
##enchymal
aware
proton
interf
gland
trip
##bac
persons
##ners
thi
##ofol
p53
radio
bip
medial
2000
vessel
##organ
practices
poorly
sple
refr
framework
##ped
ions
vt
##rose
silic
occlusion
##irect
conjug
cytos
##phrine
exhibit
neither
##olds
radiology
occurring
##okinetic
black
derm
##arin
##ozyg
distingu
documented
##arse
staff
coefficient
monocl
complaint
sen
lipoprotein
##hs
childhood
numerous
thermal
propofol
##cher
aneurysm
abstr
workers
allele
leak
cyst
variants
##itant
##lux
supr
hydroph
rehabil
cd8
bleed
stimulus
coag
displayed
gm
cabg
disturb
explain
##ranial
fing
amplitude
understood
pericardial
solutions
decl
colorectal
chief
##unct
functioning
surfaces
keep
##entia
psychiatric
supported
bac
##usp
101
allowed
unrem
patent
##beta
subcl
##rium
co2
##ryl
dro
extracts
encoding
effectively
directed
branch
dual
##uge
tone
summary
nr
indirect
influenz
storage
accompanied
suppressed
unremarkable
##ete
sb
glutam
hydroly
coverage
satisfaction
whom
2010
##ware
μm
house
##oa
mothers
##ologists
##ortun
##uvant
lowest
npo
rod
##icular
resting
opportun
##icin
begin
ket
explained
clar
clinici
rhe
dementia
nause
abuse
##olin
economic
diarrh
##ze
mineral
polymorphism
quad
inhal
ethn
jun
characterize
tyros
producing
burden
##ycl
congen
langu
##atig
gap
tex
hearing
seizure
##anine
dependence
drains
##ilateral
anth
monoclonal
##tively
immunore
reliability
##rotein
adherence
tobac
##alpha
##lip
mer
crucial
volunte
fatig
mell
##iral
hpv
pretreatment
deaths
cn
tobacco
voiding
worsening
reached
micrograms
##ocytosis
limitations
retention
transduc
kapp
##angl
plastic
views
vancomycin
spleen
film
##pg
##entricular
adrenal
##rox
noise
planning
radiotherapy
separation
discontin
compli
kill
fal
##atch
elisa
axial
##ensions
##eless
##iveness
characterization
##atter
explored
robust
##oag
histopath
vector
##acer
acceler
favor
##icles
nar
nausea
kinetics
rehabilitation
conges
etiology
mand
minimum
spectrometry
hard
retrospectively
tri
organisms
controlling
validity
##eptide
##tes
##rd
tolerating
ring
spread
##asons
manifest
upreg
##onate
extra
hor
##pase
##atid
##ulum
speed
salt
fresh
##lobulin
season
dispers
hold
transcriptional
technical
reproductive
zone
gold
facial
disability
son
##versely
cirrhosis
steroid
nutritional
##40
##chron
##mb
rd
##iologic
##ensin
granul
##orter
spectra
conversion
pelvic
ef
drop
##avy
##atase
emission
contains
tmax
##micro
agonist
give
frequencies
immediate
##iness
lumbar
implantation
outpatient
organs
##25
easily
diverse
##transfer
seed
depending
separate
circulating
sti
held
simultaneously
##term
mis
##ades
dev
affecting
dy
fab
bovine
mellitus
##issions
##udes
example
cond
##illance
antimicro
veget
##ued
probability
cd3
160
barrier
aging
determining
pna
poll
##ovirus
resources
reporting
recording
dn
tender
modification
intracranial
gf
arrest
##wide
##aemia
inoc
##weight
similarly
##otypic
morning
decreasing
murmur
challenges
particle
networks
capsule
deform
leukemia
cycles
##upp
segments
symptomatic
2d
##tructive
users
mostly
mutants
knock
tuberculosis
rp
facilitate
##yte
##thetic
strept
##mitt
##izations
##loxacin
cta
restricted
surveillance
outs
considerable
qualitative
personal
compart
possess
pairs
vul
suic
distended
ni
consequences
sections
yeast
##uclear
bias
##oic
trunc
speech
centers
cul
microbial
vaccination
infusions
urban
gt
##uting
heavy
##queous
track
attenuated
rating
aspirin
fixation
standardized
compression
chamber
integrated
introduced
language
stat
##osity
##acheal
om
contour
npn
##24
##ipl
recruited
lar
insertion
##sa
neo
equivalent
decomp
schizophrenia
##ohyd
##ught
##omegal
cod
fact
cg
spin
fields
arthritis
##forms
shorter
original
hypertensive
ethyl
##geal
glycemic
##usive
december
attempt
aqueous
glomer
includes
prelim
estrogen
accoun
operating
subjected
diges
##ichia
##neal
##onucle
ace
crystall
attit
challeng
lh
biomarkers
##ann
##insic
variance
lumen
nearly
##azine
aggressive
availability
prominent
fractions
pharmacological
μg
institution
fatigue
##onas
esophageal
newbor
##ton
##oprol
buff
##usal
affects
sedim
sph
extremity
micu
portal
forty
veh
hematoma
capable
##aden
pil
efforts
extension
eb
displac
viability
##atology
denies
hair
induces
2012
influenza
lin
engine
##ads
art
varying
electrical
dend
db
assessing
comparisons
predominantly
fd
substance
##oden
untreated
identifying
##itol
rout
replication
mature
ages
sir
2009
intermitt
wk
##anded
##icu
analges
drinking
tax
skills
##train
concom
##aryngeal
##b1
##igible
suspected
##mental
bic
hex
bd
##ostasis
referred
##plasia
##urance
cartil
voltage
##atif
occasion
duct
##cp
laparoscopic
##exp
yester
##rounding
methodology
conserved
fs
european
incision
##oside
reper
nutri
asymp
##aphyl
##osens
overexpression
rn
substrates
##iding
autoimmun
gon
mammalian
##ications
dissection
adop
transcript
overl
tg
##ocks
ho
yesterday
pyl
hospitalization
##actic
surviv
infr
persp
intersti
murine
ami
si
discre
##rect
concomitant
##ocr
vom
rf
endoscopic
surrounding
##ulmonary
##ray
mcg
accep
austr
phospholip
express
portion
ba
modulation
cytoch
border
##dehyd
articles
htn
pharmacokinetic
instrument
trim
counts
belie
candidate
persist
cum
102
nico
sarc
investigations
palp
##38
##illus
serve
seizures
unli
2011
ett
composite
abnormality
melanoma
prevented
reactivity
treating
##olec
tyrosine
##rown
complicated
##oplasty
attributed
pron
depressive
fet
pigs
embryos
teeth
get
methylation
blocked
##ices
##iciently
fluids
gli
##oints
ln
fragments
rural
##otropic
socio
relev
miss
compliance
peroxid
own
##uf
thrombosis
theoretical
improvements
nac
leth
pathogen
gaba
sul
negatively
evoked
difficulty
deficits
##veolar
simulation
anticoag
2013
polymorphisms
##mentation
##uv
issue
pure
adsorption
shap
##rt
china
relevance
gs
allel
##oresis
uncertain
pump
policy
deletion
trace
supplementation
temperatures
##oxin
chick
mim
parameter
##ears
hybridization
epithelium
assisted
released
glycop
absol
nitric
regulate
feature
escher
##ocomp
sedated
##angi
beds
zinc
##ophosph
weaned
##ensus
predictor
cdna
loading
##going
volunteers
fibroblasts
recipients
movements
escherichia
##omet
pmh
hdl
distributed
utilization
thickened
biliary
titr
##atically
##azol
iu
north
correction
mixture
ank
residents
mast
coding
##ocarcinoma
interviews
##opo
visualized
##gi
excretion
##icated
fluorescent
causing
apoptotic
weighted
biof
##oblast
sets
##ry
congenital
lep
coch
war
##ulus
c5
antimicrobial
600
reperfusion
align
thereby
##allow
##down
rheum
retr
modeling
perception
mucosal
##tomatic
##ani
phases
display
restriction
angiography
traits
002
preliminary
mucosa
evident
clusters
just
tor
##vascular
eeg
iod
180
gross
##ife
initiated
2008
##fe
hydr
hypertrophy
saliv
belong
dysp
fewer
##ascul
gd
charge
starting
constructed
tt
superf
rectal
stratif
glutath
multic
variant
interstitial
radiographs
adjustment
manip
deviation
curves
##elec
##au
pitu
##teine
apical
cyclic
##70
2014
smokers
cry
simulations
##orous
##abs
abscess
##ocytic
implicated
meds
##uch
donors
actions
opacity
transformation
##60
lp
coarse
cla
comparative
tasks
narrow
gangl
##uspid
cold
deposition
instruc
expect
threat
items
evaluating
heme
##titis
multid
cartilage
metall
lamin
##vo
differentiated
pressures
detectable
graph
mobility
mening
isolation
##002
heterogeneity
empir
steps
##osynthesis
moderately
cytotoxic
reasons
progen
consisting
##transferase
live
vertebral
##tum
##ws
osteop
cardiomy
glutathione
##zing
increasingly
meeting
experiences
ideal
pup
comput
cns
##omed
consistently
##water
##nel
##ley
caff
considering
hypothesized
ongoing
nonc
summar
advantage
categories
asymptomatic
##ll
clim
##otracheal
##ril
pall
concerns
##kg
##isp
composed
asymm
susceptible
indices
episode
ans
born
relaxation
injections
##ready
estr
pituitary
##oms
african
errors
whee
recovered
ball
##itting
sob
105
nd
##aken
##astatin
immunohistochemistry
already
absolute
crystal
2005
adjuvant
flav
##odynamic
glutamate
parad
aure
correlate
cuff
outside
version
sera
angiot
column
piv
vide
driven
waste
acad
hence
rig
##ulose
dissoci
integrity
caspase
##min
ger
##ensities
##dehyde
##hou
sensor
2007
updated
flat
phenyl
swelling
fist
guided
##nl
subjective
xen
endotracheal
##nis
involves
##ysacchar
ju
##atr
nmr
##isition
truncated
e2
applic
describes
exer
angiotensin
##gl
derivatives
aids
2015
dram
undert
putative
antis
compens
transgenic
commercial
reduces
microbi
##omical
gave
ultrason
##abilities
##ulative
correspond
feedback
synthase
##ilities
##reci
dd
afeb
genotypes
aggregation
loop
generate
responsive
gover
embryonic
maintaining
interc
retic
rabbit
2006
lipids
define
synaptic
##uation
005
details
software
delivered
always
##bre
##1a
##emat
trends
##terone
potentials
worse
gestation
encephal
bcl
premature
scientif
locus
wash
penetr
pathogens
aureus
communities
filter
steady
acquisition
libr
##23
nuclei
extremely
acetate
visits
gn
finger
gro
glass
gestational
##opulmonary
proved
phenomenon
immob
wind
phylogenetic
withdrawal
regulating
unf
heterogeneous
##uous
validation
separated
forming
needle
requirements
reflex
gauge
inher
input
baby
predicting
blue
diarrhea
relapse
epileps
##amous
platelets
interface
differed
##ections
lens
corneal
cytotoxicity
true
loops
##aind
cytochrome
tricuspid
suctioned
rc
##acerb
contents
strom
##astom
##aphrag
##point
maturation
exacerb
ecg
bey
shr
rar
viruses
##loid
##omegaly
utility
##oflu
screen
ablation
beyond
abstract
intrinsic
##zed
pts
##bb
pathophys
contraction
endocrine
##unt
##inine
##ophag
##opy
adaptation
presum
##ectors
grown
cmv
103
##adiol
practical
pancreas
depends
##sis
##ifer
caffe
hemoglobin
glycos
appreci
lytes
diures
analy
hz
catalytic
osh
electroly
respondents
immunosupp
ligands
lymphocyte
eosin
buil
typically
##ips
beginning
adenosine
inner
sevent
definition
stri
bund
dehydrogen
lr
hsp
##anted
sx
##tc
autoimmune
orientation
fasting
##oprolol
cip
##ells
vomiting
exce
malignancy
percutaneous
afib
professional
##phosph
vehicle
careg
equil
scal
ago
mach
auc
##ana
ub
participation
examinations
pca
##ibrium
toxin
regardless
tumours
##arth
sought
afebrile
bid
##plc
reversed
lactic
##tisol
##acet
implants
span
##ameth
depressed
valuable
sensitiz
utilized
barriers
guide
plaque
pu
project
##28
allowing
preterm
draining
vascul
glycoprotein
annual
q4
biopsies
fifty
obstructive
traumatic
feasibility
greatly
hbv
headache
##ury
yielded
clinicians
##itated
104
##ensis
##opol
##oe
div
advantages
##ynam
##rie
orb
substantially
scientific
##26
##entral
##err
bearing
peritoneal
epilepsy
immunity
distinguish
symmetric
remod
scales
undertaken
databases
contraind
esophag
ips
motiv
dox
##ulder
remission
park
tubes
lost
nl
parental
indicators
##ounced
c3
hypothal
metoprolol
ldh
educational
coum
pancreatitis
assembly
ards
auditory
incorporation
coupling
hypo
conduct
list
##ifying
viol
mch
mitochondria
##tures
participated
representing
shoulder
integration
##itin
semi
dh
generalized
thal
exogenous
rup
interferon
excit
awake
layers
brad
inpatient
##oglobulin
mapping
pert
preparations
##omonas
identi
##alities
estimation
bind
influences
##ologist
##oxic
pod
cytoplasmic
income
##ospor
dressing
malaria
vic
rash
fungal
films
opacities
mu
dihyd
limiting
obvious
jud
acting
protocols
consensus
fel
verbal
hrs
phos
config
squamous
carbohyd
##ka
##elihood
teaching
##ionic
dark
##90
p4
carcinomas
spectral
likelihood
cig
##acting
regeneration
##oll
serial
returned
pronounced
normally
sizes
positions
noc
silhou
bedside
##eted
acceptable
electrophoresis
rbc
cyan
##aphragm
classes
insight
bodies
##tead
analytical
##ematic
abundance
loci
observational
permeability
x1
prospectively
immunohistochemical
2016
##atidyl
serot
gut
enlarged
opioid
allergic
106
image002
##essions
rabbits
##opathic
stere
gy
##lam
##ilization
chond
vaginal
macrophage
2004
##ping
##uments
dic
anastom
##uses
osc
encoun
##oplastic
recruit
atyp
scans
##adin
##k1
##lab
depletion
questionnaires
nurse
##omers
survivors
entry
intrav
prevalent
cumulative
jpg
society
##ml
confer
weakness
simulated
##hd
crp
desc
closure
perfused
eating
testosterone
neurot
##idin
precip
##ophen
uterine
cool
##choline
##opausal
precursor
formal
pink
quantified
cortisol
chains
worldwide
retrie
troponin
##amycin
##ayer
triglycer
principal
lacking
attack
hx
##enter
##oli
duoden
whe
cleavage
brom
histor
##areness
proges
girls
osm
providers
instead
caffeine
vo
egfr
##ote
rb
vesicles
dehydrogenase
neuros
interestingly
intraoperative
option
clean
veins
scaff
asked
prescrip
existence
lop
cultiv
ff
##oming
motif
##ritic
grafts
resident
screened
subd
ngt
salmon
phosphatase
##mark
supporting
staphyl
arab
ester
fc
brown
leaves
##pan
preced
structured
advances
epidemiological
assessments
##iasis
adaptive
inducing
transcripts
awareness
sham
answ
emerging
diagnoses
##27
plasmid
micr
took
extend
adenocarcinoma
feasible
amyloid
tx
parts
hippocampus
phyt
##timal
options
combinations
operated
##uity
cardiopulmonary
##asone
##umab
##esium
solvent
land
update
ocular
circulation
##ilic
ventilator
referral
labeling
ppi
pylori
##eses
##rhythm
mae
midline
biofil
duc
contro
##80
implemented
##uled
##atible
covered
brach
ram
diets
warr
tlr
reconstruc
inhibits
largest
##amental
reinf
deb
requirement
##apped
flap
calculations
##ibration
overload
false
stiff
copper
residue
epit
controvers
environments
professionals
##astric
mann
ammon
alz
array
intram
infiltration
overweight
replet
dimensions
##adian
quin
septic
subset
pent
guidance
promoting
alveolar
faster
uniform
subunits
dt
overc
##des
detecting
route
##ocys
practition
cigar
outer
po4
sud
decisions
artificial
asa
created
fine
extens
homeostasis
kidneys
enhancing
spent
abol
##ai
##inson
##ipine
biology
postoperatively
rejection
ras
itself
similarity
##hrs
effort
arom
minute
##idase
habit
mess
occupational
masses
yr
##zyme
aberr
##heimer
pren
abundant
enzymatic
round
intermittent
##nat
critically
ald
s2
careful
contributes
preventing
aid
ascites
closed
consul
raised
##athetic
substances
wnl
electrode
fx
amplification
##rocard
capillary
steroids
anomal
atherosclerosis
drip
gent
rule
insights
##vef
indications
virt
compet
classical
clones
thickening
hippocampal
greatest
##ceptions
responded
##odil
sediment
##rought
##icients
corrected
attitudes
ot
flag
cholec
attempts
ath
vanco
quantification
coefficients
eps
precise
##iction
##onuclear
proven
##uron
rotation
nin
tooth
oa
##inter
alzheimer
pathogenic
canal
former
##ofluores
2003
cytometry
rac
##flow
vision
°c
protected
003
##22
##ci
member
fore
##ivariate
timing
crack
##uncture
creat
##chem
improves
incident
panel
identity
##ypt
swallow
changing
protect
aver
##aceu
translation
dosage
beam
exact
german
refrac
emphas
visible
digital
supports
perman
sliding
##mia
resource
##rane
##otoxin
##adily
walking
akt
##ept
##inical
representative
moving
extubated
saturation
anaesth
fundamental
trained
discharged
prescribed
pes
##uscular
northern
idi
immunod
vertebr
lopressor
infarct
##iplinary
disapp
synchron
nodules
108
situation
tac
##dep
##mod
virul
psychos
antagonists
dyspnea
##ulties
mask
academic
inactivation
##va
td
june
##lipid
downreg
represented
##omat
ankle
infiltrate
##uly
##mented
actual
phenotypes
arrhythm
discovery
magnesium
unilateral
##o3
anatomical
rank
incompl
2002
favorable
rub
locations
reductions
##irub
##ometrial
science
immunoglobulin
tibial
lvef
##itect
exists
tension
demonstrating
arginine
sessions
##pread
bf
cutaneous
ultim
##ota
wides
informed
silhouette
consent
goals
widespread
qol
colle
deter
##licit
degeneration
##ograft
demand
x2
aml
usual
##eptive
##pro
hplc
participate
cation
egg
atpase
##ughter
psv
enriched
gallbl
##era
glands
##aceutical
flux
##graph
race
quick
ent
blocker
preserved
immuno
ensure
abx
cvp
adipose
japanese
##yroidism
resol
##osome
uses
preferred
##iae
incubated
difficulties
contours
surgeons
quadr
##°c
obl
sixty
namely
rsbi
hydroxyl
elicited
comorbid
evolutionary
coumadin
stimulating
contraindications
##ozygous
brid
scen
nos
##quin
collab
orally
alleles
parasite
modifications
regimens
##ibular
homogene
##vas
highlight
progenitor
attempted
terti
quantify
coated
leuc
##gent
intes
##65
neigh
reading
absorb
drawn
reviews
carriers
alkaline
satisfactory
##openia
neoplasm
dw
gallbladder
##ded
##ietic
progesterone
wire
ubiqu
researchers
newborn
ascending
##using
parkinson
ones
recruitment
obst
aqu
cocaine
potenti
slic
##oyl
challenging
tertiary
construct
instructions
million
osteopor
tree
##off
##ocortic
subtypes
inhibiting
##opril
eligible
isot
offers
postn
indicator
##oidal
##p1
contamination
##yph
plans
##atation
107
statin
probable
nitr
schem
2001
postm
deterior
boys
kb
##ocular
performing
determinants
degenerative
elimination
fasc
equilibrium
##rocyte
datas
supply
##isph
hernia
onto
clamp
consequently
##aker
##noon
##xin
##clc
accurately
conflic
endo
##iration
too
complexity
hapl
##monic
##pecific
nsr
atypical
discrimination
biosynthesis
##seous
hormones
weekly
hydrolysis
##uits
vulner
##part
optimized
standards
mrsa
##fold
##yster
attachment
spells
gla
tight
refractory
##carb
spermat
square
sugar
expressions
couns
postnatal
instability
extubation
elucidate
synerg
##21
colony
##ocellular
mos
##actant
etoh
agonists
neurode
##max
phenotypic
estradiol
stronger
##elin
perr
##otides
bands
aspect
urea
bib
embryo
tn
minimally
nmol
fluct
partners
##sin
uk
cystic
makes
psa
country
afternoon
constitu
##itic
ekg
maps
microscopic
dosing
sag
##arp
photo
comprom
colitis
tag
##ocon
severely
##osyst
fri
look
##agic
evening
deficit
ativ
##2a
web
suppress
consists
emerged
excision
adolescent
cov
##uctase
proportional
gonad
stained
perspective
histologic
recons
sequential
neutrophils
##oxygen
managed
ativan
ventral
monol
km
phosphatidyl
##29
ded
##ysaccharide
111
##opoietic
distributions
correlates
involve
##platin
reinfor
##ifier
hl
accounted
superoxide
intraper
##isciplinary
explan
consideration
protease
append
blockade
je
comprised
househ
topical
uc
##lution
translocation
##assay
subgroups
##ilized
facility
ionic
irreg
calor
downstream
fibrinogen
hyperg
metabolite
superficial
##oded
inges
##ophilic
450
differentially
forces
descending
felt
microc
hydrophobic
crani
contributing
sclerosis
lf
leptin
suicide
offsp
109
consequence
addressed
priv
cisplatin
##asic
description
##adic
svc
library
ly
relief
##ss
centre
ejection
pathologic
scar
interference
alteration
##ropl
dich
apnea
##opes
##ordance
spher
mhc
fro
kappa
spp
##cious
ige
kd
prev
respective
distant
quant
ton
shared
##ufact
formula
combining
dimethyl
precision
sun
##aving
interact
bmd
##inea
serotonin
##ograms
splic
ft
monke
comfortable
supine
angiogenesis
galact
##nd
bun
plane
radiographic
##related
offspring
balloon
prenatal
##theless
##ometer
gait
##gu
registration
passive
tan
nevertheless
herein
neutrophil
scatter
t3
microarr
filtration
transfected
vaccines
manufact
septal
dye
march
##agg
vertical
citr
conduction
item
remodeling
heent
##ols
##unctiv
preference
hilar
reveals
##ato
pkc
loaded
motility
disruption
declined
ckd
enlarg
reversible
atrophy
lm
advance
probes
##rectomy
wounds
scenari
tid
##pped
randomised
oxidase
115
permanent
refills
##acryl
##tified
hypoxic
bundle
consistency
solub
resusc
pari
online
oscill
depos
adjusting
arf
fair
atm
psychosocial
decades
manifestations
linkage
tal
phag
nicotine
##inflamm
waves
apparently
endometrial
tyl
##ofl
braz
1900
video
fistula
cows
##romy
architect
govern
elong
negl
margin
##amus
opening
registered
0700
lb
law
epidermal
##ada
implanted
##olecular
programme
##omfort
text
nps
depr
capt
##irubin
lid
prednis
nonin
flush
fertil
##atile
width
pulm
formulation
catalyz
proliferative
secreted
hypoglyc
youth
manual
repeti
##adequ
tap
lives
##mcg
paired
standing
intestine
inadequ
##35
##ians
pilot
ways
pin
nutrient
spontaneously
ectopy
sheep
##orrow
viable
efficiently
##ticular
irregular
carrier
doub
echocardiography
incorporated
arrival
##okin
shaped
qt
##enteric
selectively
optic
sou
##ococcal
retained
sib
##tip
gradually
lifest
concurrent
stopped
bulk
slowly
maxim
glycer
lipase
descriptive
modulate
equation
mirnas
cloned
oph
immunofluores
computational
rice
blast
tended
paradig
##rod
inos
monocytes
dendritic
glomerular
thrombus
##ynamically
rarely
sear
considerably
activator
excessive
ptx
lith
##ison
glauc
004
hyperglyc
complementary
carbohydrate
contral
##omotor
##break
gsh
followup
bes
##avian
##agland
##ariable
ars
burn
mood
##ulates
##amethasone
surveys
hepatocytes
technologies
fgf
sympathetic
calcification
##jun
versed
##plex
searched
corticoster
hemisph
eos
ppm
contributed
southern
quar
hear
fourth
stiffness
coil
conserv
abolished
disappear
##ropathy
##oderm
170
##osures
unlab
automated
equip
microscop
##ah
nanos
rheumat
##vastatin
anaer
pas
demographics
july
circumfer
tomorrow
subclavian
replaced
embed
substitution
outbreak
responsiveness
infrared
diuresis
##ero
acuity
histopathological
##keletal
exception
wat
mobile
##orbent
bipolar
genus
ki
fruit
aerobic
category
commit
##raction
sheath
object
immunization
##lit
sor
expanded
unus
harm
spor
somatic
roots
studying
##eed
nitro
horiz
wife
compartment
##aud
ah
easy
tcurrent
##apt
##omorph
meaning
selectivity
lad
responds
snps
platform
sea
gad
promoted
contralateral
igm
inserted
##anal
preventive
##ophyl
##romycin
endothelium
##estim
1999
brazil
pregnancies
attenuation
awa
spits
luc
keratin
##ocin
author
prostagland
pooled
zosyn
quantum
porcine
osseous
capture
##ectom
aga
shear
##affected
oocytes
##usively
##chemical
endomet
enable
##avail
statistics
##isin
q6
inch
operations
encoded
sca
let
subtype
palli
ti
chor
cerebellar
##times
displacement
fevers
1990
offered
gam
provision
chromosomal
filling
physiologic
student
registry
clarify
foods
produces
insufficiency
transduction
bt
para
caud
shortness
homologous
readily
stret
ja
promp
coordination
##aemic
becomes
ru
dimer
##rex
equally
importantly
delir
ecological
evid
lymphaden
posts
biomarker
hands
univariate
##vae
unaffected
osteo
rehab
histology
##empor
supple
dissociation
ligament
bif
chromosomes
##atum
stimulate
tylenol
accepted
precl
chair
neonatology
nerves
##vs
diph
experimentally
##gia
##lings
reflux
123
guinea
biomass
exposures
inside
tendon
##otes
##embr
interp
5mg
rated
iq
twel
mesenchymal
a1
pacing
##ittal
definite
buffer
hemodialysis
twelve
sound
stromal
##lipidemia
##dna
##ocrit
driving
microb
perceptions
ham
bilat
job
inducible
lute
surgeon
enlargement
df
##estr
dense
dilatation
hypers
##alling
session
reductase
ze
anthrop
somewh
hos
tsh
modern
metals
somat
los
april
helpful
prolifer
##hion
##hyp
triple
blocking
acidosis
penic
epidural
2017
immunodef
larvae
##uli
fear
arteri
lib
assistance
pge
processed
800
suggestive
competitive
applying
##tub
scr
ccu
sudden
##tice
##hep
##traints
##v1
isoforms
cannula
sah
rhonch
powerful
veter
vacu
fashion
##ik
t4
135
candidates
adapted
gag
cvd
##ief
114
parietal
pharmaceutical
ethnic
elastic
alkal
perm
acts
##omedias
thr
##enopausal
##avirus
claim
conscious
##stem
latency
suffering
somewhat
umb
mf
##orp
112
immunological
yields
isolate
quite
dyst
fdg
city
bon
idiopathic
acidic
##economic
carboxyl
lifestyle
fatal
##encephal
upr
perioperative
belief
underg
trait
##oustic
##oke
anion
borderline
##lands
strict
conjunctiv
##olarization
bradycardia
crc
mab
hus
replic
amts
icd
immunoreactivity
bb
hpi
daughter
gb
dissem
tin
alignment
systematically
##acycl
mum
compatible
medline
coher
amylase
1998
swe
##enem
soy
unst
transformed
situations
##ques
facilities
continuing
conformation
engl
mycobacter
organism
activating
colonic
modes
l1
undergone
trem
##edic
##chlor
clot
amel
##urity
hams
supplemented
austral
##ectable
secretory
adduc
hi
##actin
atherosclerotic
##ples
##iol
subop
##49
modulated
##rene
hepatocellular
wavel
septum
chromatin
neurom
##osan
staphylococcus
cysteine
redox
forward
##atibility
##ptic
cats
radiological
genetically
structurally
##oneph
cattle
sds
empirical
neb
carrying
wheat
running
merc
##epam
##inating
rupture
english
trigger
osteoporosis
hm
modalities
exon
hospitalized
##esoph
impacts
fitness
c2
weights
believed
regulates
paral
##osen
binds
engineering
antidep
ophthal
ging
differentiate
bay
##zen
practitioners
##ophila
unrelated
dexamethasone
sq
##orec
africa
##add
planned
##vasive
traff
##ugular
##for
##ancer
sick
##ocated
synergistic
##37
116
bronchial
pseudomonas
sut
tau
##anti
coagulation
revision
sg
196
kore
mammary
sagittal
partly
prescription
voice
personality
neuron
exhibits
pcp
autologous
trp
bact
agree
completion
overcome
static
cysts
##ica
adhd
androgen
turnover
##esophageal
approved
industry
mda
nacl
ij
salmonella
incons
climate
reflected
137
mh
gyn
crackles
potency
anticip
##cap
##rotic
##eremia
##±0
##respons
cess
opposite
adp
rrna
suboptimal
illustr
##angement
genotyp
glucocortic
insufficient
113
##tral
transporter
nsclc
weaning
fos
coping
##lutin
vp
malform
antidepress
focusing
french
schedule
##osus
create
opti
mediate
##ora
bibas
socioeconomic
rhin
principles
##eded
c57
industrial
configuration
powder
retractions
pacem
exclusively
bott
unexp
##erve
histamine
##45
bsa
chosen
##onazole
##inflammatory
mutagen
catech
building
cessation
ia
extending
##ober
##romes
meal
##ortions
accelerated
hot
snp
##lp
118
iga
encourage
stratified
vasop
mononuclear
##otal
neuts
switch
examining
virulence
nose
tendency
algorithms
mesenteric
recall
hematocrit
blocks
##abled
##tructure
##ometh
institute
##tives
meet
##ortical
restored
activate
##omeric
##moid
fluctu
birds
rheumatoid
optimization
marginal
incontin
coating
muscul
injured
inadequate
immunofluorescence
cro
glaucoma
inverse
##electric
tracking
##imetry
kit
pep
recordings
september
appoint
null
perrl
digestion
microorgan
##hepatic
cohorts
##osyl
sucrose
farm
##idity
insurance
arms
tubular
pit
essentially
##mt
malignancies
friend
autophag
upregulated
##olone
congestion
trich
predictions
naive
math
transverse
131
multivariable
perin
##idium
predisp
attached
discomfort
pubmed
decade
##eptides
##r1
box
anticoagulation
signalling
occasional
incomplete
utilizing
##uterol
tco2
##arone
cultural
unlike
##luor
october
##achn
adrenergic
restar
regulator
pth
##tinent
splen
1997
optiray
##ynaptic
staging
him
asd
##eres
hearts
fig
grav
lineage
extreme
microf
##3a
d1
pref
filled
##ming
tracheostomy
bw
##roplasty
hors
controversial
##hl
seventy
κb
tand
stern
r2
##inosa
salivary
delirium
neonates
innov
chemok
templ
perturb
fecal
instruments
physiology
excitation
##36
phone
hall
amiod
caregivers
jugular
##imp
front
currents
discovered
raw
cement
investigating
cardiomegaly
ri
thro
##opsis
##sych
ureter
hematopoietic
osteoarth
simpl
##abd
sap
##56
##odon
##grade
division
specimen
biofilm
lowering
triggered
dob
enough
##partum
thrombocyt
athlet
neuropsych
sometimes
subm
oob
contaminated
recombination
ranges
conformational
etc
office
catar
##embl
##lies
exclusion
separately
financ
flexible
##elves
converted
zero
rearr
lg
tandem
##otoxicity
lifetime
scheduled
##ler
emphasis
##axel
placental
leukocyte
sense
elective
ureth
normalized
modest
1995
ulcers
##uric
##ev
served
portions
lag
117
flexion
shifts
##agement
schools
immunodeficiency
evol
palliative
sensing
began
cues
advanc
dramatically
pathophysiology
128
sicu
##aments
vasodil
##idi
continuously
plateau
##istar
reporter
138
electrophys
a2
nonspecific
embedded
propag
eggs
bud
nb
##cn
jour
optimum
mscs
##ilical
stored
appropriately
favour
scoring
anaerobic
wed
psori
shell
intell
acetamin
suspension
modality
mirna
discontinued
xyl
irradiated
cardiomyopathy
##pin
peroxidase
bibasilar
serine
##34
126
##etized
esrd
sleeping
wistar
cours
unstable
150cc
tte
##hol
apex
genomes
incid
##ously
##icking
##icillin
euk
clinics
upright
##ostatic
fsh
##oradi
extensively
##embrane
unusual
cin
vectors
antiv
hyster
hyperplasia
##viral
acetaminophen
harves
thresholds
recs
fox
cardiomedias
irre
resc
college
##ressin
traj
##lin
surpr
##achnoid
retina
1996
##aceae
##actor
microarray
follicular
##enin
nore
ultimately
vasculature
atmosph
provider
tv
tot
conv
bag
##ocep
##ova
electric
arous
thrombin
reag
constants
cardiomediastinal
fibroblast
##ret
antitum
mw
plasticity
blotting
locally
anatomy
casc
##tipation
besides
analogue
scattering
maxillary
dispar
eukary
reb
verified
aeros
assumed
derivative
stain
inhalation
sustain
2l
amplified
share
diaphragm
##rontal
sar
enables
aromatic
shunt
electrodes
jaund
orbital
nitrate
disturbances
congestive
##idazole
throat
encountered
neurodegen
##ophed
cochrane
##ullary
hu
partner
tpn
marine
disl
visc
endocard
##cale
tachyp
ambulatory
aerug
preservation
terr
##matic
levophed
boots
mixtures
responding
##ounding
alle
145
mediators
va
works
##utable
##factor
dupl
bilirubin
profound
conven
neuropathy
##emide
effector
placent
124
p38
connected
##ulsion
006
hgb
129
harb
foci
pao2
seeking
ecm
aeruginosa
ineff
thems
brought
##imus
##unk
themselves
suppressor
##igation
chemistry
x3
##erge
lup
cranial
frozen
##olateral
hormonal
##entis
tens
allergy
complaints
remarkable
##cape
edge
##iton
periodontal
emplo
cac
phosphorylated
muscular
albuterol
purposes
##qol
pacemaker
numerical
qs
retard
usefulness
pad
p450
pertinent
comprising
notably
##avir
reaching
peaks
##enal
##dp
##mal
oncology
hypotensive
cure
ptsd
hier
325
aph
private
collapse
din
rough
promotes
highlights
adapt
pci
conservative
norepine
occip
chd
amiodarone
linking
competition
inh
interpreted
moves
homology
breeding
relaps
##uate
why
opportunities
axillary
oxygenation
c57bl
surfactant
ide
cigarette
opportunity
immature
##urgical
lesser
feb
cholecyst
##oprot
crop
##vhd
innate
mapk
functionally
##linear
##oblasts
splenic
connectivity
##aster
##ala
domes
explo
wrist
remove
ecosyst
atomic
norepinephrine
inactiv
asian
agitation
bath
epigen
strand
bmp
resuscitation
enhances
c1
jejun
##yx
aspart
139
papill
rg
endoscopy
joints
nmda
gastr
selen
d2
hierarch
densities
epidemic
##ipar
fabric
umbilical
transfection
phe
119
homolog
adding
expert
sulph
kcl
neighbor
acoustic
##odal
inactive
##arcoma
agric
orders
rrr
lethal
histone
persistence
##after
##omatous
invent
indeed
stools
##osphate
examples
paradigm
pupils
groin
##ogastric
bonds
contributions
##tidine
tcr
achieving
property
##antic
##afts
##ivation
lasting
affer
mrnas
olfactory
ala
card
testicular
multipl
takes
matching
##oplasmic
##itten
agricult
##atonin
##3k
herb
##apine
dropped
slower
sharp
tbi
polypeptide
##elles
alcoholic
familial
pay
hous
##irc
anch
iliac
architecture
temps
##oreceptor
pore
lobes
h2o2
deox
stooling
constipation
applicable
scheme
transplanted
##ories
additive
usage
bioavail
c4
becoming
defense
pneumoniae
##esare
ai
sirna
anatomic
pollution
wavelength
epidemiology
observe
neurotrans
nonlinear
nano
august
##ubb
##oler
circular
domestic
##pes
hif
eighty
##oprazole
routin
accumulated
copy
lidocaine
myeloid
reform
osa
cocc
australia
enrichment
horizontal
ont
##band
g1
encaps
##75
hemodynamics
covari
##agnetic
##unting
inversely
##valent
ccr
og
grafting
##opos
##ecs
kept
cognition
behavioural
microtub
##ethylene
##rp
##iber
viscer
feel
formulations
prostaglandin
erk
chicken
supernat
dros
river
atom
##ker
##oxygenase
##ettes
inoculated
micror
evaluations
136
##acc
##kely
reposition
molar
crude
fertility
giving
communic
nodule
upstream
##cepts
##gence
discrep
##throm
bicarb
##a1c
intense
deal
##esarean
quantitatively
attributable
csa
courses
restarted
prep
definitive
surprising
journal
prosthesis
spot
positioning
warranted
provin
##osynthetic
stone
validate
fell
unlikely
kappab
meat
fn
ratings
acetylcholine
anis
influencing
##ographical
naturally
intrap
##audid
preca
bacteremia
policies
##fr
##anium
resin
parenchymal
incontinence
isolette
vig
hydrog
unexpected
##atrial
##antib
dilaudid
##ocyan
analgesia
discrete
##rofloxacin
coinc
cephal
##aminergic
violence
##vix
dial
axons
consulted
cfu
##hn
cooperative
melatonin
intraperitoneal
ultrasonography
uop
tam
##ico
naf
##ger
mex
microgl
emergence
analyzing
van
##azolam
fungi
supportive
subp
gst
##ighting
noninvasive
##esize
133
conditioned
amelior
cyclin
##ellite
wires
holding
hbs
articular
prednisone
hsv
catheterization
##points
accordingly
crypt
ration
##95
contractions
pseudo
uti
promotion
mammals
ebv
tong
osteoarthritis
forest
stabilization
##atients
tet
icp
warf
sand
parasites
apply
##oracic
admissions
microp
receiver
sampled
upregulation
conservation
##atosis
glial
postpartum
ok
administr
twin
febrile
hind
opin
kinases
adopted
laborator
juven
hemodynamically
chart
nation
134
vin
microorganisms
efflux
##put
eventually
restoration
india
thor
##eterm
subdural
precursors
122
falls
microscope
mini
##f1
##asal
tidal
alanine
##iciencies
temporary
histologically
clone
##iax
appearing
lymphoid
mandibular
overview
##requ
##eleton
syndromes
proc
##operation
##omb
expon
circadian
leakage
unlabelled
##uretic
scaven
##erated
dent
ligation
neoplastic
responders
piper
emphys
ends
##aryng
##inergic
crib
subar
fh
##ards
sized
glu
embolism
fis
calculate
deterioration
proportions
cytosolic
##ito
neuropath
drosophila
capability
designated
catechol
tracheal
submitted
entered
aneurysms
attend
revascular
solv
migraine
##t3
athletes
encephalopathy
hcl
renin
select
written
##ochrom
##n1
antitumor
chemicals
hyperglycemia
calibration
##urnal
massive
knockdown
acs
coa
ganglion
phosphorus
colonization
throughput
antihyp
reproducibility
##spec
fetuses
rif
hispan
dcs
perox
mesh
1β
seasonal
esophagus
recipient
##adren
diffraction
calcifications
chel
helix
##ulitis
kind
##ylate
anastomosis
remark
deprivation
lipopol
calculation
##43
swed
##ivial
gyr
ventilatory
criterion
perinatal
usa
laboratories
canine
reticulum
silver
epigenetic
picture
##fen
##remia
intention
##otoxic
lymphatic
transmembrane
manage
nicu
losses
west
nal
##icious
1994
mcv
reflects
pestic
reflecting
##uding
equations
machine
astrocytes
##ostatin
##oemb
subarachnoid
comorbidities
16s
smoke
##luent
expend
station
arc
##pe
ew
iodine
multif
financial
thereafter
antif
pharmacokinetics
gnrh
##urgery
240
uncertainty
til
hap
atl
penetration
jus
seal
ic50
transmitted
hygi
femur
##nut
acyl
##tra
ea
poorer
ice
homogeneous
##iation
correctly
##ionine
branches
contacts
##recip
immunoreactive
##verte
##vem
hco3
##odone
##f2
hemorrhagic
vasopressin
##tick
leukocytes
##tia
bonding
user
decay
eleven
ciprofloxacin
conversely
vc
hba1c
prone
gained
basilar
endemic
stra
atoms
sheet
tpa
ganglia
##oxif
purification
hypotherm
micron
concepts
tetra
##trained
manipulation
dx
##idae
expendit
phant
lymphadenopathy
##bow
household
institutional
kr
mention
thrombocytopenia
genital
warfarin
assayed
##inogen
postmenopausal
127
##arynx
electrochemical
beh
autonomic
peer
##ches
replete
novo
tee
opacification
##g2
tent
14c
wil
blockers
angina
conditioning
polymers
mathematic
causal
myocardium
hypothalamic
##olol
furos
translational
lupus
##illing
defer
limitation
silica
##zes
sterile
nested
anticancer
doctors
##enes
iop
pant
detr
generating
slud
##epith
cus
duodenal
##ogenicity
flagyl
inventory
soc
##32
350
checks
breakdown
spir
ingestion
sacr
##izumab
##tinum
##ellum
imped
wear
missing
ome
latent
144
capac
141
participating
tear
interfac
oz
ears
conductance
##onom
##lated
##but
##pi
clo
mechanistic
chloro
sequenced
furosemide
grossly
##bumin
rnas
quantity
cannab
labelled
contractile
erg
slope
tablets
trivial
conjunction
dism
132
sym
physically
word
##ubicin
avr
forced
121
##ogeneic
##imb
anesthetic
quickly
cataract
neutrop
##ulator
levof
##aturated
##oides
foreign
142
##uz
construction
##dd
ibd
conjugated
uo
daw
divertic
destruction
window
remote
visualization
oxidized
unp
proce
suffered
prbc
nonp
synov
##acterial
victim
##utation
ambient
wnt
carina
soils
oligonucle
anomalies
##kes
parath
ment
##inous
##amines
exacerbation
##ius
averaged
checked
##dom
peroxidation
##x2
##hydr
##benz
popular
embase
novem
amn
##menting
trypt
drive
presumed
dysplasia
depl
##amil
fragmentation
stones
##ophore
apart
##omics
##enstr
stents
dilution
anter
exert
releasing
##olum
erythrocytes
geometry
breastfe
november
prescrib
##iod
minimize
##met
seemed
methodological
notable
c6
700
doing
objects
aerosol
disturbance
suture
superv
occipital
antiviral
##oskeletal
adsorb
##abine
hh
##opia
polyph
allo
fellow
aspartate
monkeys
reward
routinely
procedural
ccl
007
tongue
##oving
abilities
##t1
##eled
##oric
##itability
drif
respiration
corn
knockout
corp
polyc
rdw
dut
representation
charged
productive
precautions
febr
epiderm
roc
awaiting
went
turned
painful
immunosorbent
constructs
multicenter
##ogenes
mec
mediating
subsets
aggregates
explor
shed
ovary
prophylactic
ll
universal
uro
##02
avoidance
##ests
sludge
cros
clustering
circumference
deline
striat
##arium
tris
##ares
attractive
illus
##aly
visceral
perh
methanol
slices
cauc
horses
ica
microvascular
##vity
unrespons
qd
presumably
spr
midazolam
##akers
swim
coronal
che
canada
lll
striking
gives
##inance
consumed
1a
february
rose
contrary
folate
##ba
overlap
inoculation
bioavailability
nig
herpes
moment
codes
apo
autophagy
page
parti
##plastic
geographic
##ropyl
acth
asymmetric
optimize
thyro
east
##graphy
##c1
ionization
##psych
ipsilateral
h1
##vian
autoantib
dermat
electrocard
modify
146
ninety
hosts
radicals
granules
d3
elucidated
delt
scored
anten
musculoskeletal
compan
##isk
remarkably
##alc
establishment
caucas
sit
owing
ie
arabid
multim
perhaps
allevi
##bean
##attered
electrocardi
away
##vue
swadd
exploration
##gene
analogues
##static
institutions
tonight
came
pulmonic
trunk
##aver
##inge
2a
cyp2
##oney
vestib
arabidopsis
##abling
##55
##tism
balb
mca
enabled
sole
008
125i
progressively
##oea
stated
integrin
varies
caries
##aid
stabilized
##anger
tyr
preclinical
dg
reass
principle
employing
ko
evidenced
inability
echocardiographic
wgt
radiol
ww
relatives
##ayers
passed
lipopolysaccharide
##48
antihypert
##adj
##organic
##ional
fibres
vl
occasionally
##blast
aberrant
directions
macro
##ulant
aor
##iliary
examines
citrate
nav
mets
##cephalus
seconds
threatening
##olym
monocyte
##oreg
emphysema
trab
vill
infiltr
triglyceride
nucleotides
arising
##ensitivity
cellulose
nasogastric
dnr
ses
electrolyte
##omerase
143
##ida
beliefs
palpable
sprag
##olism
dawley
sprague
subpop
cpt
zones
gfp
nephropathy
briefly
follicles
wastewater
catenin
specialized
arthroplasty
copies
tunnel
cycling
cadher
winter
rhonchi
sugars
macular
ole
augmented
kcal
terminus
bony
tar
swaddled
##psychotic
hypothyroidism
##99
survived
limbs
perfor
##oprecip
##eces
##tium
##mission
analgesic
feedings
facult
##ozoa
preferences
##orubicin
vocal
perforation
noradren
testis
belonging
##oconstr
constitute
dropl
transforming
##endum
surgically
discl
counseling
hyperp
antibacterial
lysine
believe
ethnicity
flight
isoform
retroper
boluses
interd
centres
ivc
ich
glycine
##otherapeutic
lowered
pma
dol
1993
intermedi
explanation
cholinergic
batter
pollut
lamb
##acillin
reproducible
volunt
cel
saw
dair
facilitated
meg
expiratory
psoriasis
##terase
interpret
peroxide
electrolytes
pigment
##ronectin
skull
distances
endometri
adhesive
big
modulating
neuroprot
##urane
##otub
##illed
m1
allograft
embolization
##formin
##odg
orthop
phospholipid
##icks
glycogen
metric
evolved
spike
pfi
propr
##ilon
rising
equipment
kerat
waters
##psia
##aturation
determinant
##anz
1992
erythrocyte
carry
##fl
intoler
describing
pressors
addendum
carevue
alkyl
##amer
mot
##iatr
##inescence
graphene
accompl
##lasm
triglycerides
##thood
augmentation
interacting
nond
papillary
recognize
plex
seeds
p1
phenomena
chit
reversal
cd34
##itig
uncom
arise
candida
illustrate
adulthood
screw
irresp
##ygd
glioma
osteocl
ercp
plaques
prefrontal
obtaining
1st
accounting
##ifug
immunosuppressive
immobilized
allogeneic
duplex
dispersion
agitated
antipsychotic
sup
proxim
biph
crf
##01
substituted
fifteen
segreg
infiltrates
disulf
persisted
inorganic
sensitization
reproduction
mathematical
foss
##etamine
lectin
categorized
##obarb
segmental
confusion
prove
intravenously
##imetric
eliminated
insect
mosqu
##rowth
mk
leu
cea
##irs
quadrant
cot
##osarcoma
transitions
chemo
chim
##epithelial
collabor
saliva
##irable
hypotheses
emissions
polys
glycol
amygd
neoplasms
metformin
batch
angles
##nk
tenderness
preferentially
trimester
##ofib
microbiota
thorough
endpoint
##rogens
crystals
meningitis
##oplasia
##tructural
consultation
intrath
gem
proinflammatory
apoe
themes
endocarditis
hydral
dairy
resemb
##artan
buc
underestim
envelop
ae
tai
fp
liposomes
myosin
homogen
alumin
gol
irrespective
concerned
commercially
precipitation
##rospinal
historical
clinicopath
ammonia
influx
estimating
germany
bup
##oor
scattered
caroten
##vd
transc
empty
patency
focuses
rcts
brady
##omial
##iar
agar
##ografts
positivity
lean
distor
scaffolds
fermentation
paed
mentioned
colonoscopy
breastfeeding
g2
dsm
partition
explicit
similarities
titers
anaesthesia
##ensitive
reconstit
hazards
ectopic
##sk
starch
come
##angements
##a2
190
urolog
revascularization
cardiology
##yrin
legs
pollen
anxious
##ectic
htt
bones
##inting
wm
hcg
parathyroid
adrenocep
trypsin
155
hypertherm
gingival
aller
##hex
##ipr
dilation
acup
silencing
straight
lavage
1980
biomechan
cadherin
lisin
morbid
hydrochlor
immunost
##iable
sial
##67
appointment
defective
photon
pacifier
acl
fram
mchc
##oblastic
metalloprotein
striatum
cerebrospinal
encodes
glycerol
irrevers
##anic
myeloma
confocal
tips
ances
vibr
oxyc
##ser
register
walls
q6h
interrup
##cy
carcinogenesis
touch
biomed
##utase
ppar
dpp
99m
mosquito
mitogen
mism
primers
reserv
conceptual
artifact
pretreated
percenti
homozygous
##uing
p3
##inder
ascorb
uncommon
sister
establishing
split
inapp
cooling
cyclo
abc
rounds
autops
lisinopril
glucagon
tea
##omyel
mcf
preoperatively
7a
gib
travel
##ura
dramatic
vulnerable
acceptance
riss
engagement
entr
##izer
cyclospor
ua
salv
rigid
##utter
juvenile
##istrib
##x1
burst
##ulsive
scin
##environ
repetitive
internet
eros
bacillus
nct
summer
cm2
resum
hypoglycemia
emg
catalase
sutures
##42
ceftr
scaffold
soon
##teric
codon
1h
multidisciplinary
hygiene
dopaminergic
lithium
virtual
adequately
cytology
blinded
intens
surprisingly
pw
sinuses
fertilization
direc
table
anesthetized
##thy
fulf
fluoride
aβ
moist
##ectomized
hemisphere
wheezes
ethylene
pvc
impairments
inappropri
exclude
sarcoma
##acil
infusing
##inking
gynec
endovascular
trabec
##ocompatibility
prl
brachial
ling
cerebellum
tracer
##odium
regarded
infused
levofloxacin
cosm
##alk
ethical
anova
feet
excitatory
suctioning
agreed
ductal
##retro
approx
anc
sensation
nif
microl
prolactin
##39
parenting
actively
flexibility
termed
lengths
ceftriax
##brain
rectum
asking
mpa
asper
template
antiretro
profiling
pantoprazole
interviewed
uf
##ipt
##cha
##essive
helical
##eck
##opus
regulators
##ovir
airways
periodic
calf
automatic
experts
rm
raman
fluctuations
mag
hyperch
render
menstr
interactive
government
##iffer
dysph
committe
forear
##ococci
gray
##eries
nail
depleted
epine
f1
scc
pdgf
angioplasty
148
hypothalamus
##roid
##usate
dismutase
scenarios
papers
rationale
1991
america
coex
damaged
cutoff
microenviron
telem
ceftriaxone
calcified
san
poison
quanti
intraocular
eastern
##oblastoma
reservo
detach
arb
individually
rational
constraints
projection
pock
##46
axonal
colonies
feeling
distinguished
##aplan
##mium
##uvate
demands
nodal
desired
##oretic
corticosteroids
deformity
##enger
motivation
##diagn
cyclase
trees
##entary
haemat
entit
prp
cascade
ventricles
##nutrition
protonix
overlapping
preceding
hydrocarb
##itudes
comorbidity
programmes
narc
dehydr
participant
dated
t2dm
analyse
omega
reasonable
kinds
opens
mimic
kaplan
jaundice
circuit
eigh
fruct
parenchym
overt
productivity
coc
condens
##epine
porous
epitopes
indicative
affective
pmol
##affin
##ohex
dead
concentrated
bh
sigmoid
##ena
##ola
##fo
epileptic
##zation
fv
laryngeal
promise
relate
kl
epi
nox
##otroph
exploratory
electrophysiological
suspicious
##abolic
mitig
senes
diaz
hyperlipidemia
retrieved
introduce
##ecan
islet
q2
strongest
circumst
placenta
##otrophic
accident
killed
cit
##ivity
multifocal
titrated
letharg
##osidase
q4h
iqr
thigh
australian
thromboemb
collectively
##edema
folding
prostatic
revised
qrs
enteral
epitope
tk
positioned
played
xanth
##rogenic
hop
father
market
merop
challenged
sternal
ka
remainder
hodg
streptococcus
plates
doxorubicin
##ondyl
fibronectin
wood
icc
energies
##oblot
splicing
syr
habits
isop
##izz
##glycer
intim
solubility
lineages
resected
arach
##ielding
polarization
curative
##nes
retrieval
highlighted
lucifer
flavon
publications
mediastinum
bottle
neurodegenerative
vo2
biomedical
ammonium
shortening
switching
confined
immunoblot
zebr
helic
mercury
##fish
##si
named
projects
##etine
heating
spring
elbow
micromol
##opyr
##azone
bdnf
##onomy
dissolved
collateral
hispanic
classic
ophthalm
chemot
24h
##rotomy
microd
microv
narrowing
beats
firm
ingu
##stomy
scant
rll
nodular
firing
pah
percentages
fifth
luminal
##ibilities
##odegrad
##luc
haplotype
paced
##agia
##ishman
triph
cdc
##onectin
parenchyma
meaningful
mds
pulp
diameters
phage
##azepam
transferase
mind
meier
retinopathy
phenolic
antiretroviral
##itamin
shifted
plas
coordinated
overlying
saturated
pge2
nadph
##ondition
immunized
arsenic
##roch
hmg
stream
voluntary
repeats
hyal
newborns
stap
custom
##cephalic
##ophan
immunotherapy
percept
resorption
nutrients
datasets
##p2
carefully
sacrific
leukocytosis
##otropin
monthly
##onym
pals
catheters
rect
covering
##entists
chitosan
notes
dust
fractional
hydration
1beta
her2
board
urgent
##parts
fluoro
extrap
retroperitoneal
hn
unresponsive
##77
dataset
gyrus
##amen
##tention
normot
##gm
##wa
centered
bms
collar
coherence
550
##osacchar
elongation
##eria
handling
dioxide
grades
prevents
notch
biologic
##ritin
sensors
radius
rain
rul
propensity
enanti
province
##mitter
fmri
ineffective
contribut
incorporating
##ophilia
curric
epinephrine
binary
addressing
kh
photoc
inputs
judg
gradients
##aldehyde
guideline
lands
dermal
inguinal
integral
##utely
##59
mcp
tolerate
##obac
intended
endotoxin
sexes
compartments
##ophyll
##tification
paediatric
##aching
##tir
tof
009
phantom
forearm
ogt
liquids
##wan
nitrite
gaps
##amel
hodgkin
dermatitis
switched
d5
faculty
##obacteria
hit
##uminal
inhaled
arachid
predicts
apparatus
147
organized
giant
##omyc
leaders
th1
calif
disad
hrqol
connection
dest
h2o
husband
pale
indian
immunoprecip
interventional
counterparts
crohn
bacterium
cerebro
react
biologically
210
typh
bacteri
##rug
ber
##omod
##eption
relie
##afil
amph
rhiz
dsg
expectations
gtp
##vular
retrocard
sulfur
cholecystectomy
passage
##litaxel
disadvant
sphinc
fus
experiencing
accessible
cris
bax
##tigm
##inates
retrocardiac
verify
legal
levo
mitotic
spherical
waist
beta1
graded
allocated
arrhythmias
po2
carp
##arial
parac
paclitaxel
##idone
rx
ckmb
prompt
##osites
##illar
immunocyt
vegetation
##mcs
cadmium
fate
dendr
##epr
eukaryotic
engineered
bromide
poli
heterozygous
pharmacy
players
nick
margins
accid
titanium
uterus
grass
##ozo
strip
##anasal
burs
##vp
dod
loose
colour
pi3k
designs
##aved
fourteen
##88
reconstructed
succin
filament
grain
hypercholesterol
pericardium
personnel
##acrylamide
ubiquitin
##ontrol
##amph
monotherapy
weakly
hierarchical
##je
leishman
retrograde
coast
scope
##ecyl
genetics
##b2
phon
crt
bipap
spermatozoa
##icans
polymerization
subtle
220
##opter
guan
##ply
stranded
trna
vast
exhibiting
vestibular
calves
exceeded
glucocorticoid
##urin
multil
##enzyme
##illa
antidepressant
allergen
##ynchron
##ux
##acycline
hydralazine
##ochemically
bioactive
oxal
endoplasmic
##amicin
scd
surveyed
crosso
island
vena
##ycardic
##oy
plasminogen
aaa
mycobacterium
antifung
gelatin
asperg
synovial
oxycodone
terminates
boundary
autosomal
##etite
employment
adenoma
larval
unres
##azem
cva
adiponectin
bring
annot
behaviours
mating
##otom
##ience
summarize
dilti
catalyzed
2nd
asymmetry
conflict
##44
cholangi
patchy
pulsed
##p3
oocyte
gps
lived
µm
infertility
##h2
als
defining
repleted
spind
##ographically
bg
isoth
sexually
weigh
ecc
motifs
relating
methionine
##istribution
antihypertensive
bn
viscosity
leaflet
1500
district
permit
displaced
kil
##sc
idea
pell
##fc
follicle
##63
califor
agricultural
dislocation
stresses
neuromuscular
##cope
adenomas
chr
erad
fire
bull
len
initiate
soybean
noct
##mv
rip
title
ting
competence
americans
minority
##urable
perspectives
##etrical
indometh
puber
nebs
fibre
##idol
collaboration
heavi
175
killing
##pc
gerd
##gic
promoters
##cein
differs
lysis
pfs
90s
antigenic
80s
##aturity
faecal
##iventricular
actually
accounts
##ran
matric
imaged
##ineal
##iet
bridge
imbal
consuming
##xine
transporters
sports
modelling
wheezing
##iferative
efficac
lactation
##ithromycin
aq
differing
##omyelitis
wake
indomethacin
fourier
prosthetic
abortion
finite
rho
amygdala
grew
curv
confirming
nucleic
##ees
##while
asthmatic
executive
confound
hydroxylase
rings
moiety
##ocking
chronically
inappropriate
detector
##obut
extends
##rolimus
##odic
10mg
##amily
disappeared
chromatographic
autism
##illi
speaking
presently
##opre
synaps
gels
paf
##oxicity
assembled
aldosterone
th2
##olate
osmotic
originally
erythema
spite
cream
rhod
geometric
##endocrine
##ifferenti
aquatic
bloody
converting
mtt
encouraged
stimulates
inconsistent
confounding
##ney
nemat
downregulation
diltiazem
match
meropenem
##ophils
hypersensitivity
##ificant
rcc
termination
luciferase
administer
µg
pon
serological
ferritin
earth
semen
cesarean
fused
mediator
endpoints
expenditure
behind
managing
isotope
moun
built
b1
enamel
tryptophan
serous
##growth
harvested
sixteen
hydrocephalus
##lamyd
7p
##umb
##oflurane
vasoconstr
symb
labile
links
##olding
crossover
build
clonal
##arboxyl
sequel
##68
suffer
vf
reinforc
exha
acin
habitat
##o4
monolayer
vaccinated
##enoid
stenting
diffus
##imide
neuropsychological
##onge
afford
yl
underl
##tail
circumstances
##k2
##33
mumol
progressed
accessory
herni
##ocyst
junctions
coughing
ngf
gentamicin
hyperthermia
hob
##dh
sphincter
coagul
##47
leucine
spac
##iently
lign
publication
pleas
brisk
century
brainstem
computerized
turning
cyl
velocities
rom
que
bayes
mdr
ecl
cbc
quantities
walk
cub
##ctive
mapped
organizations
##iff
##vac
clinician
sitting
confirmation
resolving
spray
committee
##electr
149
disulfide
oroph
tons
apc
prolapse
confused
glutamine
clav
deletions
prescribing
polymorphic
cone
iran
varic
reciproc
axon
microsph
pec
nitros
dissolution
subf
choline
gfr
mobilization
chance
##ignificant
multis
smear
dried
fb
islets
projections
discontinuation
dominated
swan
sufficiently
stepwise
##pyr
medicines
p21
volatile
mra
taiwan
chlamyd
chip
asia
conjunctiva
surrog
developments
livers
calls
connections
irreversible
geographical
brains
proteinuria
supplements
##asi
pco2
connective
albicans
thirteen
chemically
fetus
grouped
dysreg
##itid
lor
arrays
investigators
pda
##room
myelin
curc
gather
650
malformations
loads
excited
palsy
inherited
lactam
corpus
inherent
centrifug
##ishing
apolip
intracere
downregulated
thous
metron
traffic
##wards
cava
decompression
##amb
obsc
fabricated
cationic
residuals
stratification
propagation
try
swallowing
perceptual
getting
qp
lic
percentile
genotyping
neutropenia
autopsy
purs
##acaine
elast
cerebrovascular
aki
electrostatic
##afish
immunosuppression
hypothermia
aspirates
palm
virtually
cleft
entirely
mixing
causative
##ophosphate
zebrafish
##anolol
biotin
##urium
going
##okinesis
normotensive
opinion
departments
neurology
protr
##gar
whil
malnutrition
claims
apolipoprotein
autoantibodies
lactulose
fev1
2018
cpr
clock
plantar
dihydrox
familiar
##anil
ampicillin
##itization
cpg
##odontic
##actam
enabling
safely
biodegrad
totally
constituents
thymus
absorbed
raise
165
considerations
whilst
rech
incremental
epsilon
transcribed
subcellular
degraded
crystalline
##onyl
mun
##nic
troph
reliably
locomotor
priming
activates
195
analogs
applicability
appreciated
adenovirus
ribosomal
proteolytic
reacted
tropical
sma
confirms
suicidal
##otopic
lytic
mci
##traint
impedance
pacer
##odem
taxa
liters
spanish
facilitates
##ocor
1989
intron
microenvironment
decomposition
intensities
dad
divergence
transpl
simvastatin
thymidine
1988
153
expand
antifungal
ee
##olet
##antin
natri
births
##itabine
##ematous
assembl
sharing
##ois
##yo
messenger
gradual
##asome
stick
100cc
##amidal
oxyt
outflow
attacks
afferent
hbsag
immunostaining
glucuron
primer
undet
sporadic
##69
extin
worsened
terminals
happ
nn
4l
duodenum
priority
conductivity
brush
cerevis
outl
segmentation
waiting
cochlear
##ommod
cck
##infected
plot
intraventricular
grading
chemokine
mediates
kary
modifying
maize
catalys
##transplant
plasmids
##verted
vesicle
vw
matrices
hematology
sector
##ining
accordance
stationary
assumption
elicit
scinti
##eties
triggering
##asp
##osperm
penicillin
stimulatory
##yclic
hypod
ih
constitutive
##oglycan
cerevisiae
##adone
necrotic
falc
hysterectomy
##atinum
##adm
discriminate
willing
crow
cow
zeal
interatrial
##lementing
##icidal
specialist
jnk
##key
phospholipase
windows
unco
discusses
oscillations
2b
##d1
##flex
##erving
immigr
nov
puncture
polyacrylamide
covariates
##hoff
fum
topic
answer
##inform
##olipid
##tivities
waking
signature
hypokinesis
accommod
envelope
enteric
preec
neuroendocrine
##oate
n2
intermediates
hes
microglia
abl
##odipine
bench
β1
zealand
menstrual
quiet
funding
caudal
manufactur
singlet
deploy
##nexin
veterans
canadian
mtx
phospholipids
inactivated
vip
pyruvate
##ophosphamide
dan
intramuscular
suspic
rl
tumorigen
exerted
sternotomy
endoc
seropos
polyethylene
king
nicotin
##itating
ord
innovative
consciousness
ssc
bronchoscopy
diagnose
eat
trap
##lyl
sdh
disk
regime
renew
##oprotective
macrom
got
laparotomy
sacc
thermodynamic
tailored
##ithiasis
mutated
##ented
ems
propranolol
##emp
##blastoma
differently
##acetic
boundaries
golgi
intellig
ultravi
phenyle
radioactivity
excluding
posit
creatine
oval
polycl
ultraviolet
latin
##thrombin
rescue
gvhd
regularly
quit
copolym
hered
##epsin
interdisciplinary
collections
##expl
passing
characterised
fitted
postin
acupuncture
900
foundation
demonstration
dentin
dens
1α
##urons
##umatic
faces
hela
mtor
diag
750
haemorrh
rules
##mann
displays
stemi
##acia
##list
hydroneph
##inted
periodon
atopic
ready
##idic
hydrophilic
deviations
vulnerability
##place
abr
serves
battery
persists
gov
contempor
piperacillin
##ulas
aminotransferase
##emporal
ator
##bir
transfused
taste
selenium
lambda
rodent
atmospheric
notified
digoxin
##oprost
##oking
strengths
unfav
perp
negligible
ctl
##aa
catalyst
wider
suspicion
152
amongst
sides
ultrastructural
microsat
replace
biomechanical
concordance
deposits
lew
particulate
pmhx
cyclophosphamide
striatal
symmetry
evolving
##uan
##orbol
metronidazole
diaph
phenylephrine
bicarbonate
creating
intakes
plug
california
##itance
ik
##rexate
smad
nocic
angiographic
interfere
interfering
attributes
entity
ut
county
polyps
union
##31
outbreaks
##entesis
filaments
biod
1b
bim
extrav
drivers
flan
168
sigma
anthr
##orh
granule
latest
##m1
bottom
trypan
depolarization
scenario
156
sett
plots
adolescence
154
balanced
initiating
washing
cgmp
documentation
bright
occupation
italy
detrim
une
noradrenaline
##onat
##onit
recurrences
spectroscopic
##osum
solar
##virus
sphing
kle
revealing
korean
cxcr
urean
urg
parox
##onduc
salvage
thiol
tio2
eliminate
attitude
rein
spots
##odend
##ostal
##ompass
##dol
hole
fluc
parenteral
atrop
sediments
nip
pulled
statins
appetite
cadaver
##iella
atorvastatin
egd
mdi
aeti
##therap
##trin
phi
endometriosis
epidemiologic
mg2
stretch
##ris
compromised
retardation
antioxidants
angiogenic
tors
gravity
encompass
medicare
##ivacaine
misc
deformation
endurance
jp
##ng
fisher
vm
packed
fi
b2
multiplex
typing
158
hydronephrosis
##ilis
##ubate
cations
pivotal
penicill
msc
testes
caucasian
##berg
eh
synapses
antisense
##itate
##hed
##oti
icam
yor
keratinocytes
##head
h3
chew
mtdna
pcos
pull
fibrous
sav
igfbp
arrhythmia
dissemination
##odiaz
##iers
##ods
##rofen
##ya
##ldl
kinematic
palate
platinum
helper
spondyl
##uterine
rodents
##aminase
sensitized
neuroprotective
frail
##otrexate
emphasize
##actone
cytogenetic
gated
fitting
imag
##onium
bus
conve
die
rpe
pocket
conjugate
##du
pollutants
mismatch
physi
sociodem
grand
cloning
lymphomas
##oliosis
polyclonal
trachea
pai
dedicated
##ona
gains
alive
dizz
cbf
pcs
radioimmun
cefep
cytosol
##neic
contig
rsv
inequ
hepatocyte
dib
manifestation
##yel
transiently
##role
phil
flaps
methotrexate
meals
modif
hamster
indirectly
jaw
3rd
gluconate
##atric
multidrug
##ulent
altering
immunocomp
##atics
cefepime
exertion
dq
gavage
spaces
e1
font
physic
teams
turb
025
acutely
transported
##econd
avoided
##glycerol
vd
selectin
bnp
robotic
phospho
m3
dopa
normo
inositol
solvents
captopril
##kal
schist
disrupted
sedentary
attended
##ustion
allocation
sociodemographic
##bcs
adsorbed
overd
hemidi
patches
##ucl
##osides
inversion
epo
peroxis
advice
nap
inspiratory
##78
racial
desats
popl
surgeries
pathophysiological
scaling
##rication
mutagenesis
eighteen
##otidine
exerts
antip
20mg
src
ubiquit
france
lamina
##onn
debate
emergent
arrangement
ffp
l5
successive
##cation
overexpressed
3l
exponential
eradication
psychosis
tears
immobilization
satisfied
dysphagia
cast
meanwhile
schw
mucus
intox
unre
dha
##98
pbs
gg
##quar
chickens
pathologies
theories
nocturnal
operational
lactobac
##s2
pnd
benzodiaz
3p
euth
differentiating
famotidine
naph
##66
genera
##ethanol
##2b
judged
##bred
##anar
viewed
nephrectomy
acceleration
cue
##keleton
haldol
yielding
maze
curcumin
tolerability
efficacious
heterozyg
##opharyngeal
relig
nanom
extinction
solely
bk
anthropometric
dichlor
senescence
voc
##anin
restore
bayesian
unexpl
learned
cleared
intrahepatic
superimp
fruits
transcriptase
scalp
ingr
methadone
151
##ece
fructose
haplotypes
##bil
##yzed
restart
neutralizing
fingers
derive
positron
qpcr
immunomod
raising
facilitating
removing
dilantin
ix
tubules
addiction
quench
harmful
immunoassay
hereditary
reserve
residence
proximity
##cd
leave
probiotic
##ita
tamp
accomplished
edta
##oxifen
pgf
observer
l2
amplitudes
homes
planar
coff
##arring
pressor
beads
mrs
hat
##inos
neoplasia
specified
ultra
deoxy
grams
diagnosing
endothelin
generic
intercellular
screws
1987
rays
##tiles
taz
pears
##iteal
trajector
myocytes
capabilities
##ximab
avian
70s
plexus
lake
alternatives
opposed
butyl
constric
vitre
pole
odor
trajectories
dorsalis
monomer
unless
transfusions
porph
exec
intolerance
atropine
carbox
chondrocytes
nude
gadolin
alp
modeled
immers
vertebrate
failures
##tructures
##oxetine
##ussian
deposited
##orin
paraffin
phototherapy
subclinical
linearly
ascertain
##ordant
spindle
corresponded
hydrogel
dext
cardio
##ulla
q8
missed
##grav
amputation
compromise
borne
ingred
##onv
##terolateral
semic
recommendation
tat
pmn
sparing
debrid
ischaemic
nanoparticle
titer
captured
microbiology
semantic
##alanine
gw
##obenz
arres
##arinic
##agglutin
##coplasm
sequelae
rebound
caring
freed
tort
hips
##erto
clinicaltr
##omnia
resolve
disabilities
weaker
routes
##abp
traditionally
dependently
ams
##ovol
cvl
##mo
exons
curriculum
##oxidase
sensi
deng
##imaging
compensation
ulcerative
##ersonal
##vh
detrimental
postural
incomp
disparities
adipocytes
interacts
postsynaptic
##urea
military
morphologic
##aches
hyponat
##iparum
spoke
verap
##kinin
resultant
deterg
paradox
##ocysteine
digestive
aggression
tubulin
quer
##arter
360
implementing
somatostatin
##ulators
falciparum
killer
spain
metallic
##abetic
angio
intravascular
contract
##vertebral
##andial
deleter
1985
cup
juice
couples
mdct
v1
medicinal
definitions
2mg
periodontitis
unid
enhancer
deleterious
isomer
##unately
unn
hypoactive
supplemental
rotational
toil
bioinform
acceptor
wedge
157
##lass
listed
##omin
trail
insensitive
##ball
cosmetic
equival
humoral
timely
natriuretic
chemotherapeutic
verapamil
vte
dengue
histopathology
siblings
corticosteroid
delays
ecosystem
simply
pars
a5
closer
##ido
radiolab
flash
conducting
intrad
##romyces
desirable
##opathology
cigarettes
intrauterine
5p
##emed
nich
brca
ceramic
existed
trending
originating
pearson
pka
ventilated
##85
lfts
##acial
bcr
nafld
##ystic
notion
counting
arachidonic
biphasic
lysosomal
afl
plavix
origins
emt
granular
##ophysical
corticosterone
tlr4
uncontrol
dyn
insectic
60s
calcit
reservoir
##trim
##erate
clonidine
recessive
want
infl
trade
microw
allerg
cipro
320
titrate
clinicaltrials
fungus
mucous
oce
bios
drops
##urine
worm
##icians
##albumin
angap
swimming
reflection
##tran
##aterials
##icate
chloropl
unsuc
gua
acryl
approval
surviving
gcs
ban
vigorous
glycosylation
##ican
##atite
cll
cloud
tibia
visited
rely
toxicities
exercises
##dynamic
bat
develops
babies
mdd
folic
pesticides
transpar
cholecys
detox
stroma
erythrop
insects
##oreal
##zymes
toxins
proteases
##ronch
supernatant
freezing
##eprazole
##iosis
sna
##ylase
dehydration
aes
##pping
prepare
erk1
##umptions
##mus
contemporary
clients
rca
1alpha
avoiding
##elia
ovari
tomato
ketamine
spatially
hardware
##ading
tachypnea
bronchi
##ocycl
kc
##osamine
arousal
syncope
broader
esters
##inase
functionality
scarring
mail
expensive
1mg
swine
pedis
##72
elevations
adc
chills
varices
##electro
dict
##aded
acetab
ash
seek
assumptions
##yrate
adoption
##uce
geriatric
docusate
hospitalizations
##ozyme
##ried
##uple
cpp
imply
scoliosis
##lampsia
cxcl
glp
##ua
tartrate
bph
fairly
230
preeclampsia
invari
microsomes
##osensory
observers
drought
l4
coffee
convers
photosynthetic
outpatients
accumulate
surrogate
salts
poisoning
##ocysts
normalization
pneumon
##ecess
##charomyces
oss
##so4
request
fuc
pdt
##iatry
lipoproteins
sensitivities
anticipated
hepg2
##cessful
ug
microspheres
##omplicated
refractive
escal
##relin
oligosacchar
ultrasonic
spreading
designing
evac
road
##fall
sati
##elle
treadm
stake
notic
desens
##adjuvant
possibilities
tamoxifen
collo
serotype
uncover
##oxane
1l
gallst
##lofen
prolongation
amine
f2
encode
entrop
desorption
reconstructions
toilet
keto
cholecystitis
silicon
glomerul
bit
015
reflexes
hemidiaphragm
oxytocin
adducts
metrics
italian
radiologist
venom
gbs
##oflav
decided
contexts
stat3
retur
gastroenter
eosinophils
proline
unsuccessful
##angu
caution
##bone
methan
coccyx
l3
adrenoceptor
cytoskeleton
##000
implies
##oxia
insomnia
tampon
biosens
realistic
##lv
##level
electrophoretic
##n2
identifies
##calc
1986
escape
uncomplicated
competing
hydrochloride
interquar
reagents
remed
cleaved
vegetables
##pd
cw
##otubes
healed
paid
moved
properly
contractility
conjugates
interquartile
narr
helps
incen
159
restless
ausc
fractionation
proof
##otechn
collecting
epidermis
uric
keeping
unw
##atectomy
synthet
learn
physicochemical
erythropo
module
##41
##amino
adherent
urethral
stric
collaborative
##insulin
aggregate
utilize
leaving
freedom
acetic
histopathologic
pde
tinged
ahr
bifur
treadmill
monte
##umination
creation
era
##62
unfort
regulations
npc
signed
280
knees
choices
cardiomyocytes
##h1
##phos
##isely
vapor
irrigation
hoc
bv
selecting
herniation
ache
depended
cga
transplants
compact
illnesses
##ulae
imbalance
mabs
dot
##oscope
transit
bisphosph
discussions
medically
phorbol
tiny
heterologous
agglutin
discrimin
meningi
cpb
npy
lncr
sox
allelic
sda
covalent
##alth
corresponds
hypercholesterolemia
indexes
tachycardic
pedal
aberrations
##hi
york
conditional
argue
185
bcg
##eptic
proliferating
peaked
conflicting
clostr
style
##nary
##ishes
slice
##romagnetic
clustered
recycl
##nc
daytime
pneumococcal
trif
requested
security
sbt
bending
##cell
encouraging
reagent
##73
wit
dft
presentations
bulb
necessarily
##79
##tify
consumers
dodecyl
antenatal
##acute
simulate
##borne
herbal
bilayer
psychometric
multifactor
korea
##otent
188
##tured
ageing
vibration
attain
ether
emesis
excised
apt
chimeric
##nar
contraceptive
neoadjuvant
alph
appra
progenitors
##ewise
exploring
granulocyte
oligodend
pls
##inesterase
ethics
twit
sacral
compensatory
malt
gadolinium
organizational
microsomal
possesses
dbp
bad
##±1
sparse
plur
bmt
neuropathic
polypeptides
##obarbital
ease
##omere
titration
enroll
caregiver
valves
cd44
modulates
nifed
stakehol
infrequ
psychotic
specialists
hyperactivity
oligonucleotide
microtubule
clips
##bach
klebs
intermittently
engaged
valvular
difficile
##olecules
##cts
dextran
##icip
tamponade
sciences
servo
clinicopathological
trough
gar
stack
plain
nsa
##asting
summarized
illustrated
##rophot
##otropy
train
laryng
fluorescein
##bg
exceeding
energe
trabecular
##theses
midw
tachy
deferred
angular
postulated
necro
##iesis
programmed
cryop
substitutions
shortly
##ths
regenerative
cca
circuits
confounders
instances
microbiological
expanding
decompens
pleasant
##nam
fid
http
##ectory
immunoprecipitation
tonic
##odi
##4a
format
##itoneum
##vive
manifested
detachment
dizziness
cd11
lattice
altit
##aign
##ji
formalin
##1b
plasmodium
##astin
iter
1200
polysaccharide
distinctive
##lan
modulus
analytes
##ky
electros
##erum
nifedipine
collect
senior
diagnostics
##alg
lul
fossa
auscult
readmission
mosa
eq
##een
##ilum
##umental
nether
terminating
trafficking
amniotic
pouch
periphery
ozone
unnecess
schwann
neovascular
hypertrophic
tumorigenesis
trajectory
trib
ej
pater
transferrin
radiologists
skill
tocop
surround
myr
tocopher
opioids
eds
electromy
acr
##entin
anticoagulant
##ietin
##ussis
mip
##idym
enos
subtr
##ocet
ghrelin
pahs
##igenous
polymeric
##yan
##graduate
micelles
peric
curvature
hydroc
twins
pyramidal
microsatellite
telemetry
s100
hsp70
campaign
neuroimaging
nyst
##d2
cvs
##enous
cyclosporine
muscarinic
isometric
municip
digit
fundus
##ourse
aspergillus
stressors
##inery
micrornas
##quine
aeration
##c2
netherlands
018
ileum
sacrificed
beat
162
concentrate
multilevel
noticed
carbam
##onymous
##uent
postpr
monolayers
treg
##cetin
##ordial
palmit
cured
radioactive
##modulin
haemoglobin
encapsulated
avp
mib
hv
##actors
obstetric
mastoid
cbd
docking
advancing
lethargic
##opid
aur
cyclooxygenase
stores
##otemporal
subpopulations
nickel
b12
abrog
implic
hypoxemia
preferential
hsa
teachers
lvh
pvd
##diabetic
resten
##brids
employees
##imes
occluded
sy
exud
thalamus
ppv
ctx
disseminated
suv
metaph
sj
radioimmuno
##orted
operator
calmodulin
scarce
breaks
precisely
##onitrile
cryopres
photoreceptor
amen
transcriptome
ibs
sweden
representations
seminal
lying
phenol
##ureth
unfortunately
performances
##xual
volumetric
##ativity
undetectable
survive
pcv
p16
hypothesize
worked
spectrophot
##space
dyslipidemia
glycoproteins
epididym
phagocytosis
klebsiella
webs
incis
orthopa
heavily
raises
ign
##onuclease
constitutes
underlie
tightly
diphenyl
c18
defibr
configur
thirds
filters
##ogrel
dni
magnet
##acetam
polarity
pharmacologic
##inositol
##oxone
metalloproteinase
incorporate
##bd
backbone
rhinitis
##orex
macroscopic
cass
friends
carlo
indeterm
preceded
##grp
ova
periton
convenient
monkey
geometr
coded
pertussis
##urt
labour
##onephritis
fluconazole
indigenous
victims
histidine
##ulsions
gastritis
##ialdehyde
##oactive
households
##rob
worker
tlc
washout
germination
searches
ivp
amorph
##inyl
seedlings
potentiation
##izers
pharmacists
fluoroscopic
contaminants
discrepancy
mirr
blank
ipr
##r2
rej
artifacts
ca1
composites
vitals
packing
ibup
prematurity
rid
poc
medullary
tolerant
landscape
crisis
homocysteine
whit
rearrangement
investigates
superimposed
interpl
##onical
##orable
chemokines
erythromycin
relies
##o1
agency
multifactorial
morphologically
uncontrolled
##l1
drying
##erin
popliteal
qualitatively
huv
distention
antin
##ki
##tise
aline
##rost
carbonyl
triggers
##tide
cultivation
##acid
subcutaneously
bubb
obviously
mannitol
##chol
quasi
##umps
pupil
nsaids
rim
ducts
cobal
##sf
alters
##marks
pea
seventeen
mineralization
forens
antiserum
england
freeze
231
laminin
deficiencies
topics
jak
ibuprofen
##izable
d10
sarcoid
labelling
tremor
##enoic
charts
ecosystems
attentional
177
disappearance
##ethylation
rigorous
teg
conce
medulla
pedicle
casein
basement
disordered
##ouracil
##infection
reciprocal
##eptidase
arrived
cannabis
chiral
hyponatremia
biofilms
sxn
monday
synthesize
clopid
concurr
bilious
##cales
pbmc
oxidant
spirom
##istin
excitability
hcp
else
whites
lymphocytic
multip
whereby
neighborhood
breed
fiss
suppressing
naloxone
interm
saccharomyces
isomers
nu
##tigma
summarizes
torque
prescriptions
5l
cts
genotyped
debridement
pyrid
achievement
##ophilus
engage
pools
antipl
##iate
computation
crrt
fontan
q1
peritonitis
epig
##itish
hope
visiting
##acrylate
vox
##itum
##uns
command
scavenging
##leting
repositioning
clopidogrel
proteomic
012
synapt
thaw
posture
neighb
dispersed
##ulture
##ortal
attempting
flutter
fabrication
##ends
prostatectomy
explaining
celiac
bbb
gonadotropin
intral
qtc
parasitic
##ichi
cyclohex
transmit
trust
270
ovulation
##vern
adenine
brings
cred
contusion
moisture
dihydro
mandible
##igenic
therapeutics
260
166
dependency
subtil
donation
paracent
methane
administrative
sto
tried
integrating
fly
vertebrates
astroc
allergens
##quis
torso
deduced
##ocortical
couple
##oni
workplace
##worm
ascorbic
heterod
cholest
virolog
##ionate
mosaic
##yrene
postprandial
saph
epicard
unnecessary
reactor
amd
##cg
calibr
rol
neuroc
scintigraphy
ward
laparoscopy
fuel
pups
ischaemia
sad
synthetase
instrumental
gout
zno
18f
mechanics
sorption
paralysis
cirrhotic
##ifferentiated
chaper
crest
vss
suppressive
ortho
neuroblastoma
ou
favourable
restraints
osteogenic
likewise
translated
neurotransmitter
traine
##clim
225
circulatory
shapes
##100
##nitine
cooperation
coordinate
tick
2h
accidents
spiked
habitats
educate
neurof
stoch
##obacterium
yes
163
push
farms
married
##omotion
atax
oblique
vwf
##where
ninete
##oal
164
falling
vib
haloper
prey
accompanying
obstac
alternate
indeterminate
cultivars
parasit
aligned
rop
indoor
elab
##kary
percocet
workup
theta
effluent
microns
extubate
compressive
stressed
coming
restenosis
diseased
senna
reinforcement
transgene
hyperm
brazilian
##ipa
cml
distinction
drg
174
depolar
foam
##ositis
interpersonal
globally
hematological
smart
ppx
vacuum
qid
stigma
161
amide
##otyping
analytic
##iled
169
##achlor
craniotomy
##iii
##arrhythm
lenses
osteoclast
hybrids
##ken
sweet
measurable
camera
strips
retain
haloperidol
redistribution
cage
overestim
##atization
mechanically
overexpressing
ntg
deh
alternating
osteotomy
nstem
##onine
answered
##ulous
potentiated
alternatively
columns
##osom
von
hrv
ureteral
##icts
mesoth
##ontr
##inks
generations
constitutively
impacted
cyp3a
##ania
aryl
##ranean
osteomyelitis
simplified
167
nstemi
ks
adam
attained
journals
shortened
oils
205
antidepressants
afp
forensic
increment
cavern
affili
sleeps
svg
integrate
carboxy
hgf
ali
retinoic
interplay
afof
silicone
emptying
aspar
192
nhl
duplication
cities
##operoxidase
tetrahyd
sustainable
##irection
fingerpr
looking
ecs
##acs
formulated
consults
##yric
rock
hpa
doped
anaphyl
##ytoin
##odeox
denied
scf
mexico
talk
archae
178
rearrangements
acceptability
##inement
punct
bank
copious
sciatic
benzene
mandatory
##iguous
annular
##airs
bent
##120
problematic
instrumentation
ftir
timp
##iles
##anus
##oxon
segregation
##avaged
anastomotic
dressings
helicobacter
prominence
lept
##imension
##aze
narcotic
colectomy
projected
nonh
emo
nationwide
osteoblasts
nadh
consumer
##acl
pax
abeta
bpd
analogous
ruled
##atinib
denti
sulphate
expectancy
hematologic
##utamine
amorphous
potato
advancement
necessity
zo
##ours
capacities
nonf
##ogeny
b6
assuming
generates
##71
solitary
nom
carbonate
nid
perfect
dutch
##oste
entities
calm
##inities
interne
mad
pak
malformation
##okinase
gases
aluminum
##ptal
##vest
##bling
microrna
straw
##tender
accr
transitional
checklist
##ectomies
##aped
carc
mediter
arterio
##ospasm
paracentesis
##atalytic
vr
invest
##ysaccharides
crossl
sclera
horn
##phosphor
##trum
##opause
subcortical
px
modules
asb
enrollment
##opathies
pem
pcl
homogeneity
##nm
tetracycline
comprises
nontender
##atelet
references
flanking
contextual
##therapy
iabp
cd45
dfs
presynaptic
repression
ovaries
##omethyl
divergent
##ble
malond
tuber
contiguous
litter
intellect
quantitation
characterizing
##ofibr
trigem
erosion
##iring
##rio
projecting
immunoblotting
omeprazole
galactose
cryp
infiltrating
thicknesses
permits
inhab
hydroxyp
tow
loos
proteasome
##esp
spear
lamp
##osm
suspended
send
orch
dihydroxy
insol
##onditioning
repeatedly
puff
qtl
audit
spikes
dominance
##nps
elongated
##etermined
seros
pha
butt
protects
##omavirus
specialty
lactobacillus
unin
ny
palpation
##eles
serving
calp
stochastic
utr
dysregulation
compositions
thalass
##acyl
underestimated
##g1
sorting
determines
perturbation
multiplanar
mammography
cil
cag
radiography
girl
motone
##genesis
islands
##ham
medicated
##itoneally
tacrolimus
rdna
##ander
fda
##obactam
protecting
gbm
grafted
machinery
charges
supernatants
thrombotic
cing
remn
ws
splice
v2
thre
##ophylline
sentin
encephalitis
electroencephal
ubiquitous
distinguishing
vagal
joh
pacific
broadly
pcb
mps
polyn
13c
##riting
unfavorable
silent
retest
quenching
money
anchor
microwave
jump
##andibular
quarter
diethyl
monos
orn
##angli
172
orthodontic
eom
nebul
cpk
malondialdehyde
##ram
anp
texture
##itations
medicaid
exclusive
deeper
viii
solids
stock
ileus
ventricul
diabetics
beef
internalization
##oves
##ortem
advoc
orthopedic
reoperation
##imeter
tazobactam
##omide
40mg
serotypes
##itre
ileal
bfgf
ao
introducing
infras
submuc
humidity
illumin
182
##requency
psychiatry
endometrium
016
wb
diazepam
##tillation
sedimentation
configurations
histories
lutein
##illo
relapsed
combine
desire
warmer
extravas
freely
radioimmunoassay
##server
globulin
ptc
sport
revis
##ussion
cvvh
##the
500cc
danger
lorazepam
enterobacter
biosynthetic
##observer
vasculitis
##traumatic
##onder
declines
unm
pam
##ogether
reti
neurones
tensile
##arges
grip
1600
cornea
satellite
##zz
spiral
cd40
cooper
biased
altogether
capill
stricture
pom
prototype
appreciable
reticul
microtubules
offic
lobectomy
##ronate
independence
cds
master
reperto
##rotid
housing
nir
176
##ugg
tuning
ors
anisotropy
orthopaedic
##elective
erec
xenopus
ultimate
##oalveolar
centrifugation
##del
dispersal
dyes
thymic
practitioner
##tisone
provisional
rms
swedish
##itized
orbit
emit
newer
mangan
attenuate
a549
cet
orf
shallow
canonical
droplets
accessibility
013
multin
pharmacodynamic
##m2
##avicular
##51
ophthalmic
coherent
gan
##abdominal
##oxib
##rates
erythemat
phenylalanine
trophic
transducer
lot
intracerebral
package
##axial
highlighting
said
anorex
methodologies
eccentric
pir
##etron
##functional
014
libraries
##terenol
emotions
nephrot
annually
mediterranean
rhyth
subacute
clostridium
##esting
##yles
interfaces
managers
unevent
##wt
operatively
prere
bedtime
dextrose
lists
carcass
##l2
##osexual
groundwater
uneventful
##jug
absorp
##usted
approximate
detergent
##tains
scanner
incisions
chemoradi
xl
bonded
desm
intraperitoneally
##erves
##isters
phosphatidylinositol
bps
parap
chlorophyll
adenylate
##0000
taxonomic
tang
nineteen
initiative
anaemia
transfuse
##onc
registr
ceft
durations
suspensions
dbs
gastrectomy
##ropr
quartile
helped
conts
resembl
arranged
neurosurgery
seropositive
tu
branching
mvc
htlv
nrf2
##ogl
parametric
inverted
##udin
functionalized
##aicin
originated
possessed
positional
coastal
replicated
saphenous
##aginal
amphetamine
stereot
normocephalic
adjustments
##umen
excurs
eus
##optic
assignment
thalamic
cdi
##amn
ritu
##aint
isopro
neurotrophic
##orporeal
fg
preserving
crash
plc
rheumatic
vibrational
011
entropy
hrt
terat
menopausal
##md
tro
polarized
cholang
methylene
recie
www
bap
efficiencies
distortion
corro
mich
flor
oest
##athers
3a
##valently
sentinel
vii
maneu
##97
nsg
telomerase
paroxys
occult
crops
lasted
responsibility
##ju
pose
##ospital
discrepancies
glucocorticoids
haart
radion
searching
tocopherol
electroc
damp
worksh
outlined
kt
occasions
anions
uninfected
benzyl
theoretically
##esthetic
##rolase
inconsist
evap
broil
intellectual
innervation
erythematosus
wc
rifamp
spearman
capsaicin
audi
##ault
ampk
elu
territor
inpatients
##odex
radiologic
outd
ulnar
##produc
fk
triphosphate
amber
##utri
cha
osteoblast
typhim
progeny
cgrp
dispo
##uck
tilt
discharges
cd14
esi
##opharm
residential
glioblastoma
##litazone
isoproterenol
interfacial
pix
disin
##enolol
capillaries
##olation
tymp
colace
informative
bill
caliber
prostheses
##enses
##ocarcinomas
nih
expertise
alf
suck
lysozyme
ups
chl
aps
oncogene
freshwater
rvr
##ccs
quercetin
typhimurium
tolu
imprin
osteosarcoma
lies
rotavirus
till
tracts
cd25
1800
valuables
conformations
ssi
1984
coat
293
discriminant
173
aba
##dc
##olk
spores
chap
##imensional
sla
purposeful
intoxication
secreting
drift
##empl
primed
##omorphic
acquire
veterinary
cellulitis
##bed
##tinence
kj
cotton
sheets
stably
hemangi
##vation
atenolol
reportedly
##ht
offset
automatically
technological
mcs
hemolysis
nph
buccal
##adol
resili
catalysts
elemental
rhythms
dynam
epa
snr
kingdom
esr
##ofrequency
runs
mush
vitreous
schemes
nitrog
wheel
ocd
hinder
##ochlor
spasm
mucin
cyanosis
warming
synchronous
crs
mutual
political
drinks
rights
##atrol
rnase
suited
commitment
disturbed
salinity
spanning
redund
manganese
##64
figures
##liest
leadership
##assays
affinities
##aric
035
pand
gdm
lewis
ihc
50cc
bpa
##opros
boy
hemolytic
junctional
manufacturing
methicillin
incidental
implying
empirically
hydrocarbons
##ogroup
primates
cervix
sew
flora
interim
individualized
fluorouracil
instruction
thoracotomy
tactile
tagged
##orial
rhabd
##icine
cutting
maximize
droplet
monocyt
flows
##abolism
actu
iib
189
svr
dal
cardiogenic
##kt
menopause
##ocations
penetrating
shut
blunt
undersc
azithromycin
intelligence
somatosensory
epicardial
##oseptal
corrobor
##udine
seat
##obronch
concurrently
##veratrol
179
leukemic
desat
diur
radiofrequency
locomotion
spacer
catch
toe
plurip
dimers
physiologically
altitude
antiplatelet
##hips
elution
dmp
dystrophy
cultivated
music
feelings
##azolium
entering
microflu
##eresis
undes
zyg
##adine
##oted
workload
delivering
3t3
legis
arteriovenous
stabilizing
obstruc
photograph
classify
##reotide
1970
##hilar
brother
gemc
carbohydrates
marital
poul
polyphenol
steel
lambs
brachy
wing
##april
comprise
bod
##ucleotide
##apsed
trigeminal
maldi
hed
incomplet
coexist
##58
appreciate
##esi
midn
instance
##ez
##ventricular
approximation
ppd
sarcoidosis
replicate
measles
penile
proxy
hematuria
cec
##py
anionic
ox3
pauc
accelerate
han
somn
##alog
insignificant
obstetr
regards
stretching
recre
rods
##tizing
##atil
radionucl
vegetable
oxy
##orrhea
fec
017
rituximab
toll
interested
uniformly
noxious
resveratrol
hfd
acclim
spirit
##gms
nitroglycer
abstinence
##iley
oestr
hsm
career
undifferentiated
stoichi
##itan
lbp
electrons
abrup
subscales
dap
competent
puberty
impuls
thromboembolism
witness
nanocomp
cathepsin
##enn
181
clade
kv
##ensives
nosoc
casp
183
deaf
insoluble
maturity
propyl
trapping
plaus
cholangitis
sonography
010
atmosphere
##imentin
##ophenol
##phen
##rops
occlusive
suppresses
thrombolysis
supplementary
psi
robustness
171
dosages
##ift
##iop
proteolysis
gemcitabine
##align
reactivation
choroidal
engr
lod
offering
##trial
neurotoxicity
khz
##57
phosphodies
dsd
adiposity
literacy
c7
adjunct
trh
dss
##otri
maca
deformities
mari
vimentin
congr
monophosphate
initiatives
##omalacia
hox
seasons
##icked
phthal
ruptured
fibrils
begun
##arenal
kir
q12
##unted
turkey
hyperth
colloidal
##ilin
deleted
adversely
simplex
piglets
reor
##ocic
heard
ionized
earliest
##omyces
kyph
##efined
30cc
rflp
branched
continuity
associate
##urate
##chool
vented
paranasal
paroxysmal
billing
technically
recheck
##uber
##aca
r1
autoradi
flavonoids
organelles
liv
gsk
##test
homa
##bili
seq
dwelling
sert
iia
wine
proteomics
pun
acycl
addresses
phosphatidylcholine
cytomegal
##cranial
molars
186
antisera
neuroph
carnitine
scientists
##yday
luteal
preserve
welf
implicit
aetiology
playing
evacuation
calculating
convenience
nosocomial
extravasation
##osoma
50s
british
everyday
agencies
territory
transd
metac
federal
speak
adhesions
bioinformatics
flies
explores
##aceous
appendic
hydrogels
phle
immunologic
pathologically
##diagnosed
secret
##ocele
##actants
##quinone
visually
welfare
##emoral
rct
xenograft
mbp
tubule
strictly
halluc
scot
broth
##ulic
##54
epist
zym
preinc
reorgan
cards
este
pesticide
displaying
latex
methoxy
paste
pyrim
##know
pm2
smears
hdac
feces
incidences
parity
stakeholders
standardised
##ocryst
##bf
##ophrenic
nh2
##amate
##vert
##duction
episodic
driver
residency
##oto
oblig
covalently
##iling
waveform
##bur
erbb
irritable
capital
adl
desaturation
##irectional
hsct
bari
wheeze
##absorption
erectile
vldl
adjunc
sev
fibrotic
benzo
writing
purch
lactose
##olys
win
files
postmortem
compares
slc
autonom
refused
hamsters
illumination
predominance
string
vasoconstriction
amphip
purity
amlodipine
dendrites
208
chlorhex
##utional
pta
probabilities
##net
oint
bevac
condom
inte
acetabular
187
thinking
chord
transfers
glucan
phenytoin
coagulopathy
diure
bactrim
adaptations
emulsion
incompletely
yrs
clarified
neurodevelop
bevacizumab
##house
dispens
foramen
superfamily
virulent
##bing
company
ocean
infarcts
##ieties
necrotizing
prong
abgs
supervision
infancy
mannose
dobutamine
prbcs
microin
angiogram
reconstituted
##inoid
monomers
trimeth
pigtail
##uploid
unequ
##ophenyl
navigation
distension
penicillins
restrictive
##ondii
electrocardiogram
spastic
bifurcation
conjugation
supplied
withdrawn
comfortably
##facial
acyclovir
##formed
turns
cytomegalovirus
tsp
methylated
steatosis
makers
notice
##ket
gle
barium
secure
pathogenicity
attendance
decub
spss
emphasized
skeleton
freshly
semiconduc
adduct
telomere
cloth
mastectomy
preschool
eyel
realized
5000
exceed
succinate
aggrav
proteome
speciation
desensitization
gastroesophageal
conjunctival
quantifying
eosinophil
##ophores
nct0
cytoskeletal
proteinase
abras
pter
paternal
elegans
cave
convert
resections
monocytogenes
mhz
repetition
μmol
##romic
grey
lox
##luoro
parotid
##iva
##sg
condensation
digestib
##ogon
gathered
1982
##optysis
##oglycans
holds
bbs
ensemb
5th
elusive
##othiaz
outgrowth
##mi
jejunum
alpha1
game
soph
substitute
cdk
##isal
debr
##ulse
subtilis
gastrin
cobalt
colored
oesophageal
reint
manufacturer
etiologies
choose
acetonitrile
encounter
##aro
shoot
splenectomy
diarrhoea
squares
statistic
arises
eph
undergoes
carcinogenic
silico
resilience
##othyro
immunogenicity
##isson
pharyngeal
homogenates
gavaged
prerequis
unexplained
##1r
##zolid
melting
posttraumatic
##welling
ooz
inferred
folds
vitamins
cbt
##ago
1c
atheroma
norms
asbest
ganz
leishmania
endocytosis
pepc
foxp3
salic
bld
haemorrhage
esteem
##iders
##istine
esc
lister
restraint
##son
aiming
microcirc
inward
overdose
osmol
##52
diploid
directional
gpi
tape
adenocarcinomas
crown
##idia
##gin
zeta
niche
documents
##enders
solving
iodide
suitability
##imil
nucleoside
extracorporeal
pten
alginate
gaining
##ineral
neighboring
spit
rapamycin
lacked
flank
##alis
catalysis
dentate
copolymer
goats
diuretics
hepatectomy
nour
dielectric
civ
coma
bactericidal
##atrop
ordering
##pray
bronchoalveolar
ataxia
recycling
hsc
dobhoff
myo
probing
msm
s3
tunel
tinn
uve
linezolid
eomi
##ammon
##ario
ebp
hamper
adr
##obi
##imab
neuropeptide
combines
determinations
granulosa
extrinsic
cingulate
gentle
##otocin
##oderma
subclass
message
pector
ending
triang
##glut
##apatite
transpos
signatures
terres
psychopathology
pfc
aggress
incorrect
swab
burns
controversy
thousand
imid
clots
facilitation
fluxes
tia
smoked
bridging
intras
annexin
##oxazole
pag
bradykinin
##vertebr
##rophin
deprived
##87
beta2
characters
viewing
horse
nasopharyngeal
orange
recoveries
answers
prime
zol
arbitr
guaiac
reorient
##obia
statement
guanine
acknow
decid
papillomavirus
lun
chimer
mpo
##entified
ruq
exploited
gliomas
##urred
##61
epr
ais
simv
##ervated
bundles
##edullary
collective
refined
morphometric
extensor
thiamine
tinnitus
rbcs
unexpectedly
##tri
methylp
savings
incon
hydrom
echocardiogram
inexp
##ycline
##thing
##no
starvation
accumulating
lifes
##afen
184
terminated
##zer
inheritance
opportunistic
prothrombin
das
afferents
rnai
frailty
diurnal
haemodynamic
toes
restrictions
##iximab
##yphenyl
oligonucleotides
nitroglycerin
reviewers
##ymethyl
intent
threonine
##erating
caudate
intrathecal
nigr
sct
instructed
longe
##itidine
easier
ceftaz
calcitonin
elsewhere
ccs
esbl
twofold
nhs
gabaergic
##ognitive
cavities
tomographic
pores
10th
empiric
chlorhexidine
ewes
permeation
##abain
erythroid
evaluates
grains
listen
srs
##athyroidism
honey
murmurs
complained
infective
340
catecholamine
opened
messages
##ford
##itors
histocompatibility
hrp
bupivacaine
sln
supers
operate
olds
##through
lacks
waveforms
repertoire
##timulation
##oxins
hyperint
oac
oxo
ud
##days
th17
poultry
n1
fmd
##tilled
##itinib
jet
enterococcus
hen
religious
odont
dith
##roportion
toxoplasm
suggestions
dictated
conception
4th
flatten
tka
ouabain
bariatric
anorexia
facet
buffered
isra
##idden
##azolin
##94
comprehension
##157
cock
ovid
##cl2
prednisolone
biore
stressful
eug
mm2
gaze
prompted
##botic
hypop
monomeric
incub
bioc
isoflurane
continuum
vh
stabilize
partitioning
nicotinic
q8h
linker
##birth
1r
levothyro
hyperal
##esus
declining
heel
1983
olive
cps
streptoz
nonr
untrans
scap
colocal
dying
wax
##hem
##wire
whitney
transcranial
repaired
seques
ascer
morphogenesis
linearity
photosynthesis
auscultation
pyrene
peers
longevity
discs
reality
lex
ovx
##ecu
fim
99mtc
anteriorly
alarm
adopt
moieties
lumin
##ypsin
sickle
oncogenic
deliveries
##com
cytological
shifting
scn
##ama
poisson
platforms
arthroscopic
202
octreotide
perturbations
collision
attentive
dealing
mpt
minimizing
specificities
##igibility
##roliferative
audible
org
hypovol
suspect
myofib
atro
semin
exams
##icteric
exacerbations
##aced
dmso
sorb
ended
330
uroth
tha
sibling
gln
germline
qrt
guiac
harvest
212
##x3
anterolateral
##uzumab
thy
levothyroxine
kar
parv
destro
##ino
t2d
chlamydia
##oeb
permitted
kpa
sz
chromium
staples
##cnac
primate
thio
hypothetic
corne
hyperkal
nociceptive
aed
##hes
forebrain
forsk
25mg
gondii
immunocytochemistry
inexpensive
hemoptysis
gradu
##eratin
##×10
docet
yolk
coal
vasodilation
frames
excursion
concomitantly
##uistic
##gus
conference
fes
wanted
##roline
electrospray
excreted
explains
ingested
hypercarb
##itely
illustrates
##erus
neurophys
##oge
fvc
afm
mining
transportation
##atheter
explants
chitin
equine
anicteric
docetaxel
##vitamin
##eful
visualize
stz
imt
heated
glycosylated
crossing
ltp
disproportion
globin
explanations
sulfon
panic
trainees
persistently
trying
##ko
##ifers
##sd
firstly
##ylic
##orphone
cofactor
homozyg
planes
destin
##ubs
occupied
pitch
cleaning
nonsm
alloy
hourly
costophrenic
heroin
abp
reinforced
##param
##rows
rhesus
203
204
##iaceae
benchmark
smoker
tachypneic
μl
##iced
##entic
compensated
voxel
lle
##acetate
digested
206
019
belonged
##gran
friendly
tetrap
290
reaches
hk
ue
supervised
neglect
dissected
receptive
incisional
client
perine
anaesthetic
##opoiesis
constrained
eligibility
attracted
##ulants
mep
nanow
##inally
##ivocal
harvesting
normative
immunomodulatory
repolarization
##algia
215
neurogenesis
vmax
localize
##acterium
tropt
##±2
inference
deemed
sts
staph
375
##riage
subspec
silk
photosens
ulceration
basolateral
smallest
capsules
choles
noneth
diverticulitis
varieties
inlet
##oxal
##uling
consecu
##rep
biases
chicks
cellul
##atable
nonetheless
##uronic
193
linole
##imotor
q3
v3
h1n1
##elastic
diffusely
midnight
subpopulation
neurogenic
sucks
2c
microbes
forskolin
um
apob
##fp
##agre
ets
##rinone
##ician
##e1
amoxic
polyd
hemostasis
hung
##wp
tram
aven
optimizing
##aventricular
matern
gum
precordial
narrative
detoxification
##amphetamine
##clusive
imrt
ticks
unil
##inations
outline
taurine
##atropium
hyperinsulin
##iomy
taper
neutralization
pufa
quies
bronchitis
polyuns
grim
nanotubes
pcna
complic
consecutively
fluoroscopy
theophylline
pbmcs
analgesics
sixth
biol
nematode
agarose
prevail
guar
places
latencies
##omatosis
unsaturated
stems
nonm
##adow
repeatability
syl
triplet
##aliana
msec
polych
ensuring
elabor
mmm
thoracentesis
aneuploid
##ara
tsicu
thaliana
somnol
oat
ciliary
antinocic
worst
3mm
recognizing
handed
questionable
gonadal
209
therapists
sclerotic
ranking
iat
ingredients
aesthetic
mont
##anous
steep
##etts
descriptions
nationally
solute
fluoxetine
lu
gating
ipratropium
##amides
headaches
wob
beet
iol
diluted
biochemistry
moral
wearing
distraction
consultations
h4
gfap
roughly
allografts
terrestrial
cited
##anch
bz
advised
constituted
crush
##uran
arousable
ecology
##oned
ellip
hydrocarbon
##iline
menisc
ranitidine
consequent
omp
leukaemia
radiolabeled
drawing
symptomatology
xrd
##abr
dlb
carotene
think
pcbs
sequentially
galactosidase
biocompatibility
mexican
uniqu
counselling
absorbance
frank
carries
caloric
##unctional
##1a1
programming
##atism
ltd
solve
estrogens
##orphic
edges
predisposition
vesicular
##otherm
indwelling
blacks
anomaly
numb
favored
repro
lift
decarboxyl
inotropic
##ollen
##atoxin
##atars
cct
polyunsaturated
nrb
freq
degrading
##nem
##eit
figure
willingness
mosquitoes
microglial
exit
pediatr
##icide
h7
algae
jur
##azosin
nourished
hens
undergraduate
coiled
barley
##meq
##att
##juana
##atized
convergence
regimes
chloroplast
corpor
dichro
danish
cytokeratin
reticular
belongs
##cil
ligh
194
flowering
scene
hypernat
222
streptozotocin
saving
tms
abstracts
cxcr4
pct
10cc
biventricular
cyp2c
ontario
acetylation
comes
maintains
glandular
hydromorphone
5mm
edi
sao2
calorimetry
sulci
intraepithelial
cytometric
slept
antagonism
v6
oropharyngeal
mct
manipulated
microfluidic
reassess
dots
debris
pss
circumferential
promod
inspection
herbiv
communicating
emerge
repositioned
immunocomprom
aun
##electron
slowing
mvr
264
##orus
bru
proposes
symmetrical
epithelia
##5a
versions
bottled
##nex
##uma
ttp
eic
##legia
bite
sensorimotor
cadaveric
mist
grid
dwi
brachytherapy
norway
abscesses
scars
nont
obliter
hbe
##eld
swollen
anapl
predisposing
communicate
invited
##eas
randomization
infrastructure
shedding
erp
polysaccharides
chemotactic
autonomy
emboli
primitive
bronchus
syph
fails
##azepine
##tii
iiia
perihilar
scanned
flatus
gins
##enh
suggestion
ec50
encapsulation
paucity
combat
amoxicillin
aided
tmp
topography
faced
shrink
fractionated
tic
##class
aggregated
ejac
dere
##ortisone
compress
##ofacial
swiss
##aturing
##orum
bottling
imposed
##oplatin
glutamic
triage
5cm
metapl
warning
imposs
vasospasm
calories
aspirate
augment
216
scholar
vascularity
breakthrough
##olipids
clamped
spectrometer
endoscop
480
eae
intramolecular
spiritual
nonionic
##otoxins
plga
psychiatr
hospice
adjunctive
191
standardization
b3
barre
##kephal
mif
filtering
scid
smc
inflow
uvb
##orphin
inferolateral
pbl
##ij
##nac
##ropol
widening
##ynchrony
##iper
schedules
cmr
alleviate
##cript
##fast
cylind
ciwa
##iversity
##ishable
1981
book
disadvantages
humeral
store
eif
fathers
preex
##ilibrium
richness
allop
tolerates
palpitations
campyl
rin
interneurons
subscale
tetram
urology
##iana
##force
appendicitis
atrovent
##orn
etop
overnoc
stereotactic
costly
eosinophilic
multimodal
polymorphonuclear
comment
girth
neovascularization
intrathoracic
pandemic
vals
fissure
##units
fna
##oprim
facing
teen
##itants
##meter
##bt
##oflow
238
erythropoietin
##remic
superc
sga
marijuana
207
comparatively
microvess
completing
##iceal
legion
atra
fvi
capsular
asbestos
hepatoma
prepro
appointments
##cens
readers
##urf
##arate
microbiome
##ifies
##onergic
cotrans
218
dialys
wait
raf
##aenoic
biotechn
assume
cron
380
assimil
heads
replacing
abrupt
dissip
oedema
##atted
albeit
price
ivig
##aec
thorax
etoposide
cores
slides
atrophic
helping
placing
redness
invertebr
##aneurys
hypothetical
oligosaccharides
rales
reconstitution
layering
gabap
##istingu
mimicking
a3
##ocarb
campylobacter
reimb
transparent
##ogaster
mcl
cruz
mobil
setup
intercal
approached
##96
##wich
xr
averaging
readings
washed
420
rij
##aran
compensate
vulgar
confirmatory
surrounded
##leep
mant
chambers
##erent
mushroom
nephro
inbred
drained
utero
##rexia
carboplatin
patellar
sphere
gamm
diuresed
metam
nh4
x4
mesang
destabil
##ardiac
##lamed
##ipramine
versatile
fulfilled
gabapentin
##thoracic
##ou
transduced
gangli
retraction
##imers
##atured
outper
##achol
destructive
ara
loud
##osphere
drifts
ncs
##brt
##aked
neuropsychiatric
ascertained
uveitis
mimics
amio
##onomically
uncoupl
filtered
##ira
214
choosing
vulgaris
immunocompromised
carboxylic
rotator
ileostomy
##vc
ire
constituent
strokes
lich
neutron
lifespan
collagenase
wiley
inducer
256
##idate
thromboembolic
##atorial
rostral
chym
a1c
psycho
pyel
immersion
weather
xenografts
gaussian
ecd
cefazolin
wky
postc
preconditioning
peroxisome
topological
rew
##qi
ehr
##cus
hydroxide
purkin
administering
rfa
p27
biodiversity
discer
endoph
##urition
purkinje
lactamase
transcriptom
equipped
cms
acetone
vasoactive
sophistic
##istinguishable
60cc
pineal
secrete
loculated
mutational
235
##udi
sulfide
indole
cardior
##forward
autonomous
plausible
cope
syncy
serotonergic
roughness
apl
ovariectomized
flexor
kinematics
nigra
hns
colch
reimburs
binge
##lea
##entanil
brca1
abrogated
oligomers
1d
310
constriction
unidentified
chapter
q4hrs
euthan
gata
boost
bioassay
immunohistochemically
neighbour
cld
decarboxylase
antipsychotics
ctab
leiomy
strands
bread
bursts
japonic
supram
##cholinesterase
cruciate
scs
integ
##uoden
##ulo
bos
mmps
clind
##uro
hydroxyapatite
##oventricular
tert
genomics
lignin
nep
g3
ecmo
trimethoprim
##ospec
1400
vehicles
cavernous
antagonistic
##epile
q24
##ulinum
commission
abiotic
##gesia
doll
opt
iris
multidimensional
##inone
periventricular
illicit
personalized
gmp
cnt
dipole
micropartic
row
recieved
caco
o2s
catecholamines
223
221
breeds
milrinone
deuter
##olus
insert
electromagnetic
atri
ferric
nanocryst
deacet
barr
nipple
tcp
flare
loven
##ony
##opram
banding
##ublic
referring
dichroism
resembling
##uti
wol
##iazol
dysm
dams
guard
mitosis
hyperpar
aav
resis
##life
qhs
foster
deployment
pim
##onol
dissociated
##oproliferative
##idis
clindamycin
indistinguishable
mgl
nes
melena
ken
vicinity
##elity
confluent
lovenox
monoph
myx
phagocytic
ral
##italopram
unfolding
graz
valium
anneal
centrally
prerequisite
cloz
probnp
abor
autoimmunity
##asth
isoelectric
aux
pancreat
##oprote
slowed
masked
chondro
conferred
vats
##itt
swabs
livest
licens
addi
cd2
sero
caesarean
cholera
shaft
##oneg
atlantic
endors
patterning
spacing
crystallization
livestock
intrapar
prur
trout
intervertebral
chemotaxis
poses
analyzer
aromatase
lie
sandwich
wasting
devoid
intravitre
028
restorations
supra
ameliorated
unal
pover
mj
advantageous
rle
manually
dies
env
obt
genotoxic
catalyzes
opinions
lvot
0005
tunn
atcc
disclosed
poverty
diuretic
sickness
census
hemith
abdomin
republic
laws
topology
mycoplasm
ranked
##enone
##ipp
districts
instant
iddm
impossible
c3h
##ellate
2r
ribonucle
factorial
serocon
##obiotic
paralleled
ancient
metabolized
##562
friction
cz
##olia
nnp
##etrically
pictures
vegetative
mutagenic
vinyl
thyroxine
advis
periv
engor
mics
211
operon
tends
letter
##attr
##etalol
seb
dece
recognised
##cys
alkalosis
##arians
asleep
ipv
##agglutinin
i2
predictable
exagg
karyotype
p65
elastase
bcs
pyrexia
csp
thymocytes
occlusal
226
##ofil
igg1
toluene
intermolecular
5d
mcc
##thrombotic
024
##74
glycolysis
pyro
atg
phosphodiesterase
##i2
hydra
##agas
syphilis
farmers
##itates
##mer
losartan
evaluable
##opent
mmc
cryo
pq
labetalol
##olated
minus
sas
prokary
gpc
thp
ku
nigeria
hydrolys
companies
##ila
cd13
neurodegeneration
eliminating
oes
vre
marginally
irritation
coatings
##asted
ceramide
splitting
ics
rectus
ing
ancestral
diaper
interobserver
dentists
insem
021
shot
semiqu
returning
inflamed
##bens
relieved
o157
proceed
colchicine
##91
##ethanolamine
eluting
respir
verification
gleason
##isch
femor
melanogaster
##tude
hms
unaltered
doubling
rendered
##2o3
coexp
humerus
hydrophob
hollow
mth
leukotri
##inding
dor
naphth
tensor
##ycle
barb
isotherm
analyte
oropharynx
pleth
ideation
inspired
apoa
injecting
metropol
myopia
##ylyl
140cc
anas
pneumob
dural
no2
##olith
##b3
expired
solved
clotting
hek
activators
microarrays
thyroidectomy
urgency
myrist
harboring
spong
emphasizes
tregs
herd
guiding
agriculture
avf
synt
convex
numbness
nts
##istended
##gmental
effectors
##astically
acted
027
otitis
huge
pubic
##agl
jew
owners
vertebrae
##apopt
colostomy
irs
##yne
lant
jvp
contradic
##gian
originate
warrant
retinol
ch3
eve
wd
##issive
midbrain
023
anomalous
##amination
ascorbate
remodelling
wilc
migratory
coenzyme
carbachol
blindness
antagonized
##glyc
dosed
cic
failing
accumbens
dtpa
##plate
motions
meiotic
dilt
nondiabetic
valpro
cuc
##well
clearing
epic
consolidations
##erals
bruc
repletion
##var
diaphragmatic
biophysical
relates
ampho
cnv
##can
hypertonic
233
##oct
##istan
gate
safer
outdoor
amines
multifunctional
lifting
paw
immunogenic
hyperkalemia
##lucose
disparity
gv
##alin
atn
##iterp
275
##ocyanate
aneurysmal
twitch
herds
intimal
##usions
##76
consor
integrative
##enicol
bear
##oxylin
canals
##uliar
neurosurgical
wards
triac
ori
sic
substantia
mitigate
##light
hypercap
cephalospor
specifics
exacerbated
##oca
peculiar
hbc
ptca
##arith
alloster
portug
##mmhg
autoflow
##oluminescence
1700
disrupt
infrequent
voltamm
thematic
##ower
##peridone
##yrib
ideas
surfactants
##icially
##idus
biosensor
##aminidase
1300
hept
##chym
adequacy
defibrill
arsen
arrested
doubled
photographs
multivitamin
##okes
##entre
##graphic
ye
vdr
robot
registries
tortuous
intranasal
asn
beams
sevoflurane
##icul
bivariate
stoma
cloudy
genotypic
hydroxylation
reorganization
##noea
b7
neurocognitive
ffa
ei
##endicular
modulators
egfp
##rochan
worth
nucleation
##elic
##opyran
pulsatile
sepha
resume
referrals
filamentous
iterative
clozapine
transthoracic
ketone
edematous
embryogenesis
pyloric
cronbach
##actable
##une
neurodevelopmental
valence
denervation
await
mesangial
statements
##imetic
moments
##ocutaneous
sepharose
relapses
methylpred
alcoholism
kub
begins
spore
intraparenchymal
##trypt
export
temporally
##iro
objectively
orthotopic
burnout
udp
olanz
intima
pis
soleus
protons
slit
doubt
nanostructures
mek
bla
hydrocortisone
nest
hypernatremia
ond
prion
##atisf
conting
40s
##ao
motivated
mirror
##berry
residing
loosening
##zo
35s
visu
oxalate
breakfast
thromboxane
crossed
hydrodynamic
disclosure
anaphylaxis
exempl
thail
liposome
contrasting
##olis
stratum
elasticity
perpendicular
##b4
strengthening
fidelity
icr
fluctuation
amenable
ointment
paralyzed
contacted
thailand
shrinkage
antiproliferative
##ogonal
nondistended
benzodiazepine
tfs
rue
tnfalpha
370
100s
30s
deceased
creb
ferment
drinkers
breaths
cohes
##imilar
epiph
acknowled
lymphoblastic
chrys
hyperbil
neurite
echin
##olded
cardioresp
217
213
cruzi
evolve
interconn
308
hern
##ck
##drug
preventable
##implant
cres
##elioma
##olor
wilcoxon
blunted
oligomer
modulator
intrig
nach
##specific
cbct
abnorm
perrla
##oem
nanoscale
rigidity
shig
investment
loving
seaw
anoxic
harmonic
looked
organis
##opsin
bronchodil
##odextrin
022
acne
ampa
logarith
nephritis
sertoli
k562
##kb
glo
survivin
ipf
stranding
pulling
interpreting
calibrated
hemi
jejunal
nash
feels
basin
fasci
doping
parp
intraclass
pra
inhaler
clinicopathologic
impairs
modular
macroc
slo
join
quadric
hunting
##lt
mug
spa
premenopausal
syring
olanzapine
antiepile
astrocyt
rhonchorous
biopros
##odermal
counted
autoreg
missense
revisions
anxi
hyperparathyroidism
nv
sophisticated
lax
spirometry
##rical
eclam
##tz
##inis
engraft
traction
etiological
026
contraception
insult
screens
ecchym
nephrolog
morbidities
adipocyte
neurosci
##yed
remnant
##ammonium
pc12
seeded
delineate
pcc
virgin
schizophrenic
burk
ctr
crh
resemble
##otax
245
lantus
##iday
enal
ribose
formaldehyde
belly
eukaryotes
pher
bacterioph
pmv
atrioventricular
trapped
##3b
ask
##imid
pcd
mitogenic
bubble
mts
bird
reasoning
untranslated
anger
sewage
psychotherapy
catast
laterally
##eping
##atility
lue
educated
drb1
microstructure
##amid
confers
seropre
100mg
g6
damaging
disintegr
possessing
porosity
##inders
##argine
airspace
kepp
implication
gnr
weighing
228
enkephal
flower
spermatogenesis
needing
##omn
embolic
birthweight
hev
manus
##ahed
jaundiced
ces
acidification
oscillatory
##istein
ionizing
corros
##urinol
polycystic
glomerulonephritis
immortal
rounded
lpa
preh
keppra
resumed
comprehens
sleepiness
aldehyde
toxicological
discriminating
metatars
eluted
##rna
nonun
ferrous
blastocyst
perl
carbap
catabolism
lentiv
##bro
tnm
seropreval
hallmark
##oatrial
defence
torsion
prism
##vium
orientations
granulocytes
cd16
hypn
labels
##adium
linoleic
infest
superiority
anticonv
desatur
osteoclasts
no3
cistern
##side
psycin
ria
glycosamin
implantable
eclampsia
##ilton
##osclerosis
psycinfo
hyperv
reconstructive
synchronization
##nish
ensemble
pmns
biodegradable
##obutyric
##osurgery
aphasia
pean
helices
##93
propionate
##entions
020
##ocalcin
##timulated
hyperd
histochemical
bx
coordinates
workshop
bare
intriguing
genistein
mao
updates
rds
##icted
install
nim
arabin
uniquely
energetic
genit
hidden
##bra
osteoporotic
reformatted
inacc
disaster
##uents
sinusitis
convergent
mm3
thoroughly
qds
stir
pneumo
outward
tunneled
glargine
paracrine
##gg
nonre
jo
strikingly
extrahepatic
hiatal
sternum
instillation
isr
##tinib
tcm
lec
hemithorax
minerals
outputs
##picu
ctrop
##ini
hazardous
multicentre
oxygenase
purine
##kd
mount
steadily
cdnas
##ocyanin
isotopic
nz
listeria
pseudoaneurys
##eastern
gpr
aro
downward
dm2
annotation
groove
##yrid
224
lpl
ascribed
interrupted
##apoptotic
unmet
##ogle
authorities
appendage
abnormally
nmd
ctropnt
thyrot
rick
cardiorespiratory
layered
synthes
##inol
laceration
sheeps
##accum
##retin
packaging
therapist
inconclusive
reglan
bottles
refill
biogenesis
intercourse
eia
##ishment
legislation
ultrafil
posteriorly
rotated
thalassemia
frog
posttrans
lima
232
subdivid
culturally
methylprednis
covers
ribosome
forests
organisation
wavelengths
psychology
##othane
hamilton
amyloidosis
imper
##ticks
syringe
vasodilator
paradigms
metropolitan
tendons
##anase
##phenol
supposed
##x10
glomeruli
s4
enthal
intractable
anthropogenic
contributor
fun
brdu
auxin
4d
tetanus
guarant
council
##f4
pills
metalloproteinases
frameworks
irrig
infan
pepcid
probabil
epstein
seawater
lati
neurologically
dropping
6j
denaturation
##vable
##inesia
glcnac
secured
20cc
cftr
gastroc
hyperalgesia
plts
gallstones
underpin
mounted
goat
lym
perivascular
redd
##blasts
sbo
renewal
regressions
homo
trophoblast
lining
##opropyl
##verages
subcostal
heifers
nlr
##kinase
##orphine
xi
priorities
funded
##ilol
coils
##ocytoma
hypere
explicitly
rankl
strategic
opiate
intercostal
svo2
reared
sp1
eta
spatiotemporal
myeloperoxidase
dermis
halothane
neglected
sheepskin
pointed
hook
pubertal
influenzae
gj
##ql
doxyc
aper
amphoter
yog
chop
probabilistic
divalent
##lofenac
##oviruses
brack
mediation
rumen
climatic
carved
ambulation
urothelial
##itrate
watch
pherom
##ancing
##roscopically
vpa
pyridine
dar
rhythmic
equivalents
digestibility
pharmacotherapy
cush
albin
##agonal
infectivity
antim
singleton
##orectal
prostaglandins
suite
##aned
repressor
peptic
##opolym
ctc
enalapril
##ulosis
intravitreal
##yelination
dsc
lysosomes
lactating
topois
meningioma
orthogonal
arbitrary
hypoglycemic
grating
##etent
sponge
t7
authentic
affiliated
##oplank
pear
denmark
intraluminal
##athic
##lable
298
melanomas
o3
mesop
##acr
##olymph
choroid
##amphenicol
##rotal
ugt
1979
##omain
##book
cina
pest
denitr
pharmacology
radiosens
pigmented
informal
phylogeny
harmon
##iens
svt
##uridine
reflectance
s1s2
##ek
quadriceps
axes
##exual
erup
##cel
micronucle
bioch
flowers
##ocystis
##bia
abut
##ypti
devast
0002
submucosal
speeds
gun
##acea
broken
backgrounds
methyltransferase
stasis
granuloma
adrenaline
gtts
grape
tuned
hampered
hyaluron
escc
ameliorate
fistulas
##employ
mins
##omatic
chorionic
##aparin
##tigo
covariance
seroprevalence
##hu
##ults
reader
pluripotent
considers
40cc
germinal
trimethyl
pneumonitis
##tructured
crim
eyelid
440
shadow
myofibro
gms
critic
##lers
vibrio
burning
4h
longest
##ymic
immigrants
chewing
absorpti
##odia
bean
libitum
esophagectomy
warrants
repressed
botulinum
80cc
resonant
msp
correlating
##emias
apple
granulomatous
dhea
tlr2
proteoglycan
orif
##yline
siv
##atergic
spell
reproduce
discipl
bioactivity
holes
calorie
osteocalcin
##125
contaminant
infertile
130cc
macromolecules
recreational
igg4
concordant
opn
dre
##oots
centrom
neurotransmission
oscc
staged
unt
preexisting
monoc
anteroseptal
incentive
##omeres
linguistic
sphenoid
compliant
##hp
allopurinol
4mg
urgently
subtraction
permeable
alpha2
##onide
demanding
editing
centi
inqu
esterase
conduit
##uctal
stenoses
scavenger
00am
e3
amphotericin
hydrolase
elucidation
enj
butyrate
pvcs
workforce
30pm
hong
disposal
##ottic
thc
reviewing
epilepticus
vasoconstric
infliximab
awak
dissatisf
oleic
questioned
##atine
relapsing
##anting
appraisal
compatibility
imatinib
pgf2
##idime
tcdd
engraftment
cyclosporin
##yseal
seated
acinar
##olab
2d3
##otecan
##82
fe3
mimicked
serov
fasted
thousands
magnev
acetylcholinesterase
##yglucose
antimicrob
##odyn
chemilum
##asin
transdermal
electrically
magnevist
legionella
##ropin
##avirin
compulsive
##arca
##ip1
situated
attenuates
nsaid
doxycycline
elite
dividing
##rodesis
dcm
254
chemoattr
worms
##ubbing
##osulf
dti
hyperbilirubin
abi
streak
##board
##etom
##operiod
splenomegaly
expectation
recanal
societies
3000
##iparous
##onegative
##transplantation
hypothermic
oestrogen
bout
fascia
anticonvuls
ggt
constantly
unpre
serosang
capsid
toxicology
hairpin
participates
##afenib
needles
lose
dab
##urethral
adrenoceptors
codeine
pairwise
acp
##versions
assurance
lessons
circle
fellows
migrate
lepros
phenobarbital
ortholog
flair
song
rhabdomy
##ano
photodynamic
immunocytochemical
absorptiometry
stopping
zoon
engaging
ceftazidime
pie
##ectasis
hhv
cart
##odyl
##ocap
transection
acros
##enedi
##uptake
homologue
cylindrical
translate
ore
interruption
plasmon
sialic
androgens
pei
dynamical
glutamatergic
oscillation
##ofemoral
pill
##ima
##inescent
unemploy
quiescent
##arrhythmic
q12h
motivational
pairing
cinahl
hardness
oligo
##anges
##epines
##omogene
##akary
atresia
scleral
yag
chloramphenicol
fitc
##ami
045
msi
transgen
undetermined
##onasal
subdivided
outlet
cddp
constitutional
ribavirin
##ometrically
##ourinary
lymphs
viet
cardioversion
degrade
synergistically
methylprednisolone
faint
rabies
lem
##articular
anatom
chips
##phase
encounters
categorical
##anda
homeless
preparing
chemopre
tonsill
strengthen
219
solubilized
androst
vb
execution
triton
mtb
business
adver
escalation
uncertainties
niv
239
trou
lamellar
##ingly
tether
vire
029
##84
impulse
amphib
##enafil
foraging
ordinary
secondly
oozing
prod
344
##optera
##arietal
rescued
cortices
##187
drastically
perceive
synchronized
carvedilol
saharan
genitourinary
antec
hydrophobicity
aqp
genders
motile
##inus
thrombi
incidents
looks
d5w
memories
##lora
craniofacial
##ael
##ceps
indisp
histomorph
motoneurons
##tress
workflow
##obium
mva
ppp
photoperiod
interl
greenhouse
sonographic
utilizes
sst
30am
handle
mso4
heterozygosity
hsd
sinusoidal
##86
judgments
cryopreservation
##yron
dir
##aryl
amplic
anthrac
euro
##osomiasis
simulating
diclofenac
lond
nearby
trisomy
lipophilic
aeg
bead
upward
descriptors
reuptake
##odin
muller
carpal
refinement
##oinos
sarcomas
##oplankton
exhal
cancerous
radionuclide
##bpr
##mitters
coexistence
bomb
resembles
hmgb1
pedig
creates
32p
photocatalytic
##opeptidase
operators
reproduced
wise
unsu
humid
arterioles
plei
vn
##±3
pla2
passes
antiepileptic
##ansetron
lx
transposition
noncontr
adri
depths
braf
innovation
extrusion
antimicrobials
255
occupancy
specification
enorm
sympath
xray
epigastric
032
allosteric
k1
oxides
##yb
##orem
esophagitis
friday
phenotyp
adenopathy
airborne
##ado
facile
counties
synapse
##ancre
methox
nhe
##ungin
finland
syngene
burd
connecting
exosomes
leach
hyperbilirubinemia
aca
kvo
explos
hyperthyroidism
shares
reserved
dysk
ultrastructure
sucking
violent
subsp
immunoglobulins
##inesis
prodrug
pointing
bridges
mcr
colleag
beverages
apr
governing
preincubation
urinal
gluten
witnessed
ostomy
bold
mmse
paradoxical
additives
acd
cytologic
##elected
computing
##years
templates
triacyl
manipulations
judgment
ondansetron
trin
precipitated
6h
historically
lncrnas
checkpoint
dipl
hydraulic
ternary
leprosy
integrins
ossification
classifier
restoring
##coag
infect
dentition
##ophytes
autocrine
##ava
unpred
ornith
##ja
##fulness
bleomycin
365
saudi
xii
neurotoxic
##oprotection
ky
##ecre
cd20
bilayers
nitropr
cyanide
posttreatment
devastating
##wid
265
markings
##obronchial
inclusions
disciplines
lect
environmentally
weighed
##atally
unb
##obs
lethality
fertile
syngeneic
disequ
##osac
clp
atlas
chose
dephosphor
seph
oryz
sons
nitropruss
phleb
##antit
##2c
##mn
municipal
noon
##pot
##pn
##icides
tags
hindlim
##aquin
flushed
invariant
clamping
gpx
tma
anchored
mucinous
hepatotoxicity
prison
exhaustion
rater
pharmaceuticals
fmol
straightforward
appli
ecz
oesophag
provinces
heritability
justified
intentions
tad
aic
801
hsp90
reactiv
pmi
mortem
meetings
##othoracic
dac
reasonably
adds
actuarial
receipt
ssri
tann
synergy
fragile
##burg
interior
posi
megakary
nitroprusside
aminoglyc
coags
snail
increments
committed
glia
##μm
inoculum
inequalities
hydrolyzed
chaperone
benzodiazepines
sentences
foramin
interrog
odd
##anat
iatrogenic
introns
hnscc
rinse
oestradiol
pneumoboots
intramedullary
sterol
##inic
dul
colonized
##ifera
##db
##aterial
overlo
deployed
120s
morphogenetic
ink
##ysm
ante
skew
insertions
physiotherapy
clubbing
modifiable
brass
qualified
counterpart
##omon
##ilance
accred
substituents
leis
##olase
lacz
breaking
ppb
##wi
##orrhiz
snap
zof
arrangements
ultrasonographic
risky
commonest
reimbursement
lft
036
241
limbic
pellets
serology
vacuoles
hydroper
biodegradation
hundreds
sid
##eller
cancell
inspiration
constraint
arose
monoxide
disabled
glutamyl
endocrin
remember
ez
##imine
##ogue
##jejun
melanin
peel
##89
hscs
nanofib
xenobiotic
glas
gambling
vietnam
lysates
titres
unfolded
gil
leishmaniasis
olt
microparticles
dapt
rotating
##entilation
css
zirc
ionophore
wallet
##ulph
##odopa
transamin
exchanged
diode
israel
discussing
complaining
##acing
roll
official
methamphetamine
cfs
##ref
threefold
234
homeostatic
hematoxylin
cephalic
chondroitin
cim
attainment
stations
myogenic
predator
##omatis
phosphoryl
##oreflex
cmc
cheese
##anthine
hatching
##elt
##oprop
236
##lc
elementary
sequestration
retroviral
276
histi
nanomaterials
gastrocnem
thinning
alkali
##recogn
##etomidine
chlorine
analysing
pathologists
tnfα
pharmacist
std
pps
metaplasia
bee
aspirated
malays
submax
drawback
cvvhd
20s
commin
microcirculation
gpa
##anum
confron
reprogramm
kits
concre
thrombolytic
interacted
liposomal
229
##lys
endarter
##gut
enfor
301
evaporation
038
mycobacterial
243
##uitr
advent
rubella
glycans
volunteer
cpa
billion
advertis
vor
asparag
mite
##health
boos
410
##ympathetic
##enium
say
coiling
##ails
biomaterials
sharply
streptococci
devised
dht
chb
letters
golden
##oretin
granulation
shaping
itp
ribs
interests
tramadol
##lysis
turk
repress
spiking
loh
sustaining
anhydr
intub
luteinizing
mutans
tmj
##quist
asph
discordant
dysuria
deteriorated
psc
anesthesi
acinet
##acies
conspicu
publicly
semiquantit
##ye
tca
mssa
cid
fad
lakes
verb
invasiveness
##yridine
osmolality
porphyrin
##ocene
##olones
##inked
227
luminescence
##adesh
neurotransmitters
thumb
lacun
##otomies
ovalbumin
inhabitants
indispens
pph
acetyltransferase
leyd
approximated
dereg
wn
031
printed
egcg
bromo
retaining
eventual
aj
dka
unavail
cd28
amphiph
subtotal
##adex
pz
dysfunctional
emitting
lymphadenectomy
huvecs
##transferases
##arine
##odys
bisac
2100
trachomatis
dimeric
backward
fluoroquin
perforated
diphosphate
##odine
248
cmax
cannabinoid
virological
nematodes
civil
rpm
bene
p2y
efferent
anasarca
##endym
##entation
subfamily
hypercalc
assemblies
##appab
migrating
kong
correspondence
046
hemic
minimized
##took
gdp
expenditures
flour
mycoplasma
antral
rfs
311
certified
##ostat
##oo
perineal
risperidone
##onolactone
dba
xanthine
bovis
##valin
appropriat
morphologies
substanti
pertaining
topoisomerase
proliferator
inhomogene
eag
maximally
lub
retarded
toc
encompassing
simulator
037
chloroquine
bisacodyl
niddm
##awa
##mu
##ispers
acinetobacter
nag
lethargy
obstacles
pixel
##ulline
flavonoid
gastrocnemius
polyphenols
afforded
50mg
deer
crowding
##viruses
##idomide
corrosion
rubber
##brand
exaggerated
socially
vna
##tryptamine
##nan
disequilibrium
hypocal
london
cili
coel
nephrotoxicity
kain
bam
locked
dz
##operfusion
mong
wks
undertook
aza
societal
helmin
educators
transaminase
polyst
##adjusted
1978
sacchar
marketing
faecalis
traps
034
migrated
concentric
bland
carcinogen
squared
diversification
resembled
unpredict
v4
levodopa
laa
bloodstream
g4
carn
isopren
rainfall
manager
pectin
2200
##anthin
leaching
lncrna
fle
carriage
landmarks
larynx
competency
uremic
##igo
expense
q24h
airflow
rubs
algal
oncological
cdiff
##uloplasty
told
tio
ovine
closing
sarcop
##romegal
anticipate
##opeptide
kyphosis
tobr
460
hemispheres
imperative
ccc
1975
insecticide
leydig
nonsignificant
430
##onation
##atched
akinetic
sclc
285
h5
guanosine
048
vad
consortium
fascicular
serr
blunting
enox
zoster
dosimetry
chloroform
transcatheter
sustainability
mx
##ifiers
lever
ontology
##iters
imagery
##acetamol
enucle
spines
paramagnetic
peanut
equivocal
##yryl
sque
rendering
quadrup
immunophen
##rb
intraoperatively
##whel
≥1
incorporates
aerated
alex
##cting
ssp
diversion
efs
ambul
##arum
##omedial
thanks
premolar
folded
disinfection
##rogl
cd11b
nights
exactly
thread
slip
##operitoneum
##apical
nystag
vice
piece
enkephalin
##edicine
dxa
nonster
collapsed
afterwards
visco
unload
microinjection
pumps
hypok
grp
rnf
classifications
leisure
fishes
##tanding
##gluc
caucasians
colloid
gill
##ugr
intimate
alkaloids
transitioned
242
pyroph
eosinophilia
duty
reacting
biceps
anticoagulants
teacher
cubic
##artum
hetero
cleans
##ocentesis
dsa
overwhel
fusarium
scl
##west
##etary
sectors
nanor
steroidal
dollars
elucidating
315
##aired
moss
closest
##sulf
sv40
pitting
clades
nephrotic
pollutant
rw
##qs
discern
033
beneath
galectin
monoamine
polysomn
codons
producers
economically
##osterol
alcohols
reabsorption
00pm
sulcus
culturing
guarding
continuation
identifiable
4mm
calpain
##ughters
wi
t1d
teens
pace
##icals
industries
uncovered
hypodensity
zofran
dehis
##t2
lengthening
psoriatic
haemod
guidewire
broiler
speculate
spo
neutropenic
##apsular
destination
hcmv
impulsivity
##bank
sulfameth
hbeag
nitroph
##aris
gallstone
hemip
psp
##gow
commens
relaxed
police
electrocardiographic
##pregn
recap
smd
uncon
##c3
p2x
mountain
symph
##self
vertigo
disrupting
rgd
##position
cfa
concana
cassette
associates
wells
##ophor
starts
wakes
prepped
anesthetics
ridge
hallucinations
inflation
##iance
edition
pick
chemoradiotherapy
msh
bcc
buttocks
annealing
dorm
gingivalis
timed
niger
237
pine
nets
omn
pcwp
housed
pbc
##jd
##onates
##aclavicular
##92
fermented
conductive
foetal
cooking
colleagues
diminish
enantiomers
humalog
2mm
eut
argued
##ipenem
yearly
compartmental
thoughts
presump
institutes
generator
lingual
##orre
ada
file
##ividual
formulas
glasgow
readiness
##aban
##eptin
anisotropic
amy
subsegmental
##gy
wheelch
navig
pounds
serogroup
convinc
dk
ade
spheres
##alo
brachio
gastrop
whenever
annulus
subling
geometries
exocytosis
lesioned
coincided
perone
etiologic
transformations
##heal
vcam
concanavalin
rag
##ticle
##ubertal
intratum
nect
nystatin
probiotics
poland
autoradiography
yeasts
flic
ota
cystectomy
##itidis
ril
specially
gastroenteritis
##uitry
##uman
methacrylate
##ovsk
246
##oviral
nystagmus
elastin
##meth
##tigmine
850
calcane
albino
1960
opg
accessed
wille
paracetamol
268
mole
appendectomy
gynecologic
skilled
slopes
principally
nonsmok
membranous
##uated
##ynch
pads
gpcr
graduate
postp
##inia
versa
clay
cycloheximide
transmitter
##albuminuria
cvr
rumin
##ap1
##oride
sarcoplasm
aborig
unresectable
b16
tobramycin
##thermal
flutic
244
serologic
infantile
finished
esp
##uronium
markov
daughters
cm3
dile
contracted
##oting
##ultured
indispensable
##bp1
##iscal
nearest
levaquin
polycyclic
295
##amers
adhere
305
##idation
1100
030
hyperpolar
beij
relatedness
200cc
redundant
ucp
nrs
avm
parasympathetic
bq
dangerous
##apeptide
biocomp
dehydro
carers
fluticasone
icsi
##itide
##regn
##umann
chow
dus
kp
expresses
lans
##thalm
dispersive
disagre
ligaments
carbamazepine
pseudoaneurysm
adriamycin
##loro
##83
depress
upa
##endoth
bmscs
##otonic
endonuclease
compressed
2300
247
cd10
micronutri
dating
##ounted
representatives
dinit
reconstruct
proposal
sild
ptd
vincr
kel
047
##uin
wel
##sr
slaughter
##child
##onary
fatality
polystyrene
lipitor
##ille
##opamine
demineral
laying
##mr
inhibin
##ieu
semiconductor
epididymal
epc
spironolactone
philos
dithi
mesothelioma
persisting
orthostatic
overproduc
artem
stance
251
lipoxygenase
priori
masking
##bbb
nong
ch2
p300
coral
refers
restrained
rrt
gynaec
infra
osteogenesis
bacilli
252
bell
steric
observing
catalyze
cach
alleviated
imprinted
eczema
antiarrhythmic
520
stains
condyl
splenocytes
manufacturers
##cing
ced
obstetrics
390
conflicts
dysfunctions
seronegative
beck
reads
preload
pns
##ume
##occl
xrt
noncoding
cryptospor
villages
##phi
##oxan
territorial
congruent
##atide
binocular
blots
imping
iugr
##vin
oxidizing
trast
acrylic
##abol
delineated
graphical
rearing
17beta
kat
blanket
initio
##like
macrol
distilled
nothing
eo
β2
unified
cords
ltc
brachiocephalic
##iferous
vg
anca
wish
##d6
vegetations
rolling
streams
unpreced
cholel
cascades
039
thermo
bidirectional
dystonia
thior
practically
##aki
putamen
annotated
naphthal
natal
accent
intrag
neurophysiological
unadjusted
vincristine
hur
##mar
haematological
anaplastic
lastly
##wood
aminobutyric
pmma
callus
mans
##trig
h3k
azo
##din
instrumented
tace
decubitus
trastuzumab
appropriateness
##dg
unprecedented
triti
contracep
diverticulosis
pparg
synchronously
npv
criminal
sips
phasic
n2o
##avers
positives
tables
dialysate
willebrand
palmitate
combustion
##imumab
propri
hemispheric
grazing
longitudinally
centred
heightened
sildenafil
pst
cvicu
pvp
internalized
##torh
cordis
##orel
mvp
dlbcl
vitrectomy
miscar
urtic
decide
pds
t0
graves
cytosine
##implantation
tech
optimally
##oposterior
discriminative
cyclodextrin
cep
quart
progressing
tubal
paths
psychomotor
intu
quater
enormous
##cv
myristate
cash
##atech
##ophyte
settles
orific
sows
##anoid
gard
##roz
contraceptives
succe
266
quinone
lhrh
cardiomyocyte
graduates
259
##plan
footpr
##tl
pleur
astigm
myopathy
kall
reflective
proliferate
cavoatrial
autum
diary
glycan
approaching
correcting
pigmentation
basilic
lcs
##aka
disadvantage
empy
pvr
glycolytic
snow
erect
##phosphate
257
##μg
accidental
overs
unrecogn
sof
##olization
copolymers
durable
tues
provoked
urod
callosum
decompensation
nbp
##ylaxis
stature
##adap
strictures
##edics
seriously
estrus
##po
boron
carotenoids
psh
sdf
bronchiectasis
cardiologist
##epid
bifid
hyaluronic
etching
ambiguous
chori
dichotom
##eto
recognizes
maternity
weekend
##ogenin
harbor
4000
stellate
##apillary
immobil
harbour
conservatively
bark
##ository
flip
040
revolution
seroconversion
##usor
antegr
##adec
nutren
regenerated
##ellosis
interpretations
acanth
apd
cholelithiasis
##onomical
southeast
keratinocyte
icg
dnase
mst
hps
##ogluc
ca3
irf
##agens
mace
ipa
hypoplasia
empathy
antithrombotic
endarterectomy
permeabil
evidences
incisors
##istance
lycop
meningiomas
corneas
qi
cystatin
chondrocyte
unmod
neurole
sarcoplasmic
pva
blastocysts
quadru
hun
ambly
remediation
asians
heterosexual
comprehensively
##iplatin
fic
272
muss
microdialysis
##at1
249
fibros
damages
##kii
adnex
brbpr
glute
fort
pathogenetic
##iazole
##ounder
texas
##parametric
shrimp
coexisting
rage
defl
mptp
6l
leader
##oxygenation
hernias
anxiolytic
raph
complexation
spok
unsatis
mns
##gement
nyha
rifampicin
7th
assesses
adopting
beijing
nicard
glycation
cbg
supras
##arf
leptosp
cyp3a4
academ
citalopram
lcx
salient
##etra
barrett
notification
##encephalic
psd
refuge
##entistry
ccr5
##len
predators
glucosidase
colorimetric
junior
##oreceptors
lectins
practicing
kernel
transfered
poster
separating
squee
##stein
cholangiocarcinoma
neoin
palatal
##fly
hypothyroid
shelf
shortage
burg
d4
##formation
runoff
##astig
encl
253
pyrimidine
xa
circuitry
##cysteine
metabolically
denture
arthrop
medquist
medquist36
mmr
antegrade
predispose
vsd
##idinium
ahi
narcotics
exceeds
dermatology
stump
##esthesia
reversibly
ankyl
crosses
litterm
##itter
isoflav
##opramide
sublingual
payment
##adher
genitalia
##ostom
470
polluted
antithrombin
communications
h2s
astigmatism
laminectomy
##iensis
introduces
dehiscence
258
castration
≥2
preg
myd
colp
comminuted
pumping
##ospecific
attribute
photoelectron
opposing
lord
taq
fasl
preferable
distinctly
ornithine
pacs
noradrenergic
vv
25th
compute
tpo
mailed
glycosyl
chir
fibromy
metocl
lis
bradys
styles
evans
arthroscopy
sure
##ikre
prag
synucle
ambulance
rashes
##alcoh
myocarditis
dentistry
nowad
lmp
mvi
pbp
xylose
mars
enum
locoreg
manure
hyperinf
macromolecular
aboriginal
bronchiol
macaques
##aconazole
compete
nowadays
anonymous
benefici
systemically
dash
profoundly
franc
achieves
condensed
seventh
unsatisfactory
extern
hemorrhages
slide
floral
##urized
oxaliplatin
sirt1
##ewor
implicate
mglur
pleu
sweat
nations
osteopenia
##okine
043
##oco
hyperpolarization
maneuver
##evalu
cones
nicotinamide
##enzymes
radiosurgery
##agers
unic
cx43
anastomoses
flattening
mastitis
relieve
viscoelastic
regenerating
##bu
##erged
google
citiz
##k3
##rolithiasis
540
t12
segmented
stacking
supraclavicular
chewable
purely
1990s
switzer
astrocyte
##ellae
rpr
##azo
schistosomiasis
exploit
tcs
##ocyanine
hardly
##atia
##biotic
concrete
cyn
##oresp
##onins
forec
1976
wales
##dor
sprou
##users
checking
ltr
receives
dms
nuclease
pruritus
273
a23
##inin
claud
metoclopramide
nominal
amplify
holistic
urethra
autoantibody
favorably
supramolecular
diacyl
rsd
names
unamb
numerically
switzerland
hypercalcemia
oncologic
##yelin
##ecia
##obacterial
aha
##ometers
admix
calcine
performs
##vt
phenanth
emitted
purulent
trached
impregn
##illes
phonological
bcx
carcinogens
##osc
hypercarbic
##othyron
artificially
communicated
granulomas
responder
philosoph
263
tack
contrasts
dmd
homologues
entrap
042
adoptive
##81
tps
synuclein
##trated
repairs
transports
##annab
maxillo
streptomyces
degran
##ouses
bruits
##timulatory
inev
draped
##r3
plating
diurese
##width
nadir
nh3
nonsteroidal
##ocus
##osel
00001
erythro
clavicle
##otrypsin
2019
##ipime
##han
nicardipine
temperate
partnership
##101
##d4
sirs
bioreactor
##osities
049
thrombectomy
fusions
unambiguous
aas
cbs
##atracheal
tremend
##erson
wak
##nb
##acement
infecting
modulatory
biotrans
casual
listening
s6
appendix
pieces
##osecond
##entioned
calcineurin
##ectants
descent
shrna
cecal
meiosis
##ivudine
obsessive
afsf
atherogenic
exchanger
mitomycin
lichen
##oons
overlooked
##una
merely
vo2max
shoots
mycobacteria
phosphoinos
##chond
##olumbar
clues
cholestasis
pvn
autumn
softly
##osystem
empyema
mastic
##osyltransferase
wheelchair
saa
ccl4
abduction
associative
games
contributory
tmd
##omandibular
antinociceptive
xx
brace
enterobacteriaceae
burdens
hindlimb
lux
alongside
leukotriene
##adel
ultrafiltration
biphenyl
stigm
stainless
sers
lighthe
phyto
certif
encouragement
tetrachlor
urs
##yal
purple
antioxidative
campaigns
calculi
cefipime
##anta
mult
##ingual
hemipar
laun
aseptic
##olem
fits
pgs
e6
abo
collim
specialties
norwe
crosslinking
obscure
288
pyrrol
hay
enterocol
##imolar
hav
##ott
misuse
alkphos
##angiogenic
fragmented
tp53
meniscus
2n
##olysin
278
ireland
staphylococcal
at1
hydrated
262
##dy
##eri
agnps
lansoprazole
##thi
640
presumptive
grouping
##triatal
mmf
rheumatology
leftward
incentives
prohib
carol
decompensated
lae
1977
sab
abrasion
neuroprotection
hpr
##essional
continence
crystallographic
dexmed
##ube
tunable
##beta1
nonresp
pond
##ytically
freund
fibrinolytic
##missions
##ask
ligase
michael
transloc
activin
##renorphine
sore
##ulary
nervosa
phac
ki67
ale
plastics
proteoglycans
rejected
snake
contradictory
glucuronide
##6a
developmentally
gase
hypovolemia
glc
predation
##s1
unresolved
irrele
ministry
tryptic
chemiluminescence
fbs
cong
ctla
##vinyl
halo
scrotal
##flu
unac
##rons
##ulence
130s
cages
triad
mbl
##tins
explanatory
##ynucle
fractured
pgp
##children
hyperdynamic
sulfamethoxazole
##car
cannulation
##alignment
unip
chemoattractant
rls
insec
evd
dorsolateral
balf
unavailable
dexmedetomidine
##iclo
pud
drives
sre
##orphyrin
distally
reservoirs
argen
fossil
##osteal
##reek
calling
totbili
uncomfort
careview
assimilation
recanalization
##tert
##tering
tig
preop
imipenem
ligated
seeding
shoulders
governed
##amol
thoracolumbar
##ohem
unmodified
##urus
##admin
heights
replacements
iaa
recurred
##acetyl
rhamn
proceeds
kap
pacu
detrusor
estrous
##ecd
postd
##gc
scaled
qualities
amil
oro
unpredictable
3b
dnas
spons
fev
ancestry
##gamma
apices
041
##tron
##tina
grasp
nab
microelectro
##breeding
##adish
osteoblastic
bibli
feline
rud
dissimilar
trehal
wildlife
amaz
quoti
locking
ptb
hindered
defines
antih
restorative
tertile
ch4
##ocardial
tired
reacts
dimerization
lexical
acei
predefined
citrus
nw
##nour
obscured
##allic
##my
lon
hierarchy
roi
myasth
emphasizing
necrops
borders
##ported
readmissions
gras
##foli
##bw
##ecrosis
viremia
contributors
habitual
cardiothoracic
sorafenib
gonadotroph
##othiazide
phytochemical
complementation
cooh
och
##itative
anabolic
walker
##obiliary
unselected
transactivation
agglutination
powered
holstein
##romatic
lov
roux
ild
grounds
cch
##acyclin
catabolic
pige
##odynia
cocci
dynamically
unstimulated
mlc
##ett
pacap
6th
achilles
confid
detectors
nnos
nanowires
submaximal
gabaa
uncomfortable
infiltrated
##arms
debil
cauti
distorted
##oflavin
huvec
##oencephal
pret
##havi
##lycerid
jejuni
nonsmokers
##case
rises
accommodate
##x4
insecticides
lyme
##ikrein
matches
debated
reprogramming
##±4
certainly
exciting
florida
##uresis
iner
reinforce
investigator
##opathological
##kc
sao
campus
unlabeled
hypoperfusion
competencies
##echoic
gaseous
##ospinal
435
obstacle
anoph
a23187
variceal
sars
sleepy
stoichiometry
emulsions
##etector
##iclovir
ethmoid
irrelevant
##kat
supplies
trypanosoma
milieu
electrop
mz
hatch
genbank
ingredient
noticeable
fibromyalgia
expector
cognate
cyanobacteria
returns
reevalu
aband
kras
##othyronine
verm
##aresis
sulfa
261
##standing
clarithromycin
listeners
microscopically
##adenosine
justify
bmc
terminology
exposing
discriminated
lightheaded
pigments
shocks
wealth
pparγ
defibrillator
unusually
azath
assemble
267
chimpan
##ein
spending
curved
insemination
560
turkish
hyperplastic
locoregional
ui
ocul
dipyrid
##lock
genesis
hospitalisation
quadratic
qaly
stimulator
midwives
horser
varicella
transesophageal
hyperoxia
alve
oligodendrocytes
manuscript
pheochrom
generalization
homogenous
cryopreserved
kyn
nitrous
nasc
plasmin
bangl
##oconjug
amiloride
##roma
pfge
toxoplasma
weighting
bangladesh
lipolysis
metaphase
##ofluor
bioge
baumann
##analysis
##ochrome
releases
tz
hexane
iranian
##iab
comet
alfa
sio2
athle
discontinue
norwegian
##reen
hcm
##benzene
##opharmaceutical
nares
rtms
gangr
biotic
disabling
isos
naming
horseradish
semiquantitative
arctic
##ulsification
pfo
curing
ppt
##ervical
voltammetry
anteroposterior
locate
probands
glasses
##uel
279
permissive
pleiotropic
msa
milest
##ogonad
calv
anf
##etan
empower
electromyography
finnish
##openic
dysplastic
epidemics
handic
utilisation
nil
linkages
valgus
carbapenem
retired
entrapment
intersp
trav
john
duoderm
##angeal
postop
##omening
gastrostomy
ribosomes
childbirth
##map
uh
tst
parturition
roman
##omyosin
##ioprine
fluency
335
albuminuria
ripening
pheromone
russ
vz
##erae
##arabine
collaterals
haemodialysis
##oselective
##κb
cultivar
##ureter
thurs
cci
##oeba
fret
peroneal
hill
quartiles
physics
immunocompetent
044
fviii
##oxidation
symphysis
moll
carboxylate
ere
prevailing
##yelinating
pillow
##avastatin
isotropic
instantaneous
g0
ict
##words
passages
hemostatic
10am
lanth
##olaryng
299
nanocrystals
decel
csc
homod
thermally
maxillofacial
gallops
antrum
immigrant
##antigen
website
##urge
deoxyrib
dav
mcm
azathioprine
disorgan
ops
dnmt
staphylococci
##serine
##oxamine
##arboxylic
ost
contracture
q2h
combinatorial
isopropyl
potently
leaks
##tilb
vsmc
zona
277
drs
photochemical
assault
sos
carotenoid
vsmcs
mutually
##umber
agn
##ismus
##ractionated
sedative
##ria
arguments
##otube
hypertrig
imported
wrong
sativa
denatured
gwas
zip
transmural
zoonotic
sentence
269
homologs
microch
psychotropic
nanoc
##urry
tolerable
halogen
opa
glutar
twist
##aut
stairs
chelating
##hydrox
hydroxytryptamine
uva
baumannii
biocompatible
temporarily
gtpase
prehospital
facilitators
ophthalmology
##burn
observable
sie
slugg
##tp
advocated
##ophosphor
##trex
##apez
herpesvirus
goes
##sm
##tistic
perovsk
unra
nursery
batteries
csm
implied
smr
spectrometric
relational
frustr
dinucleotide
##liptin
unwanted
dcis
##olymer
dimeth
stringent
anaerob
ogtt
unravel
demyelination
influential
##arity
phthalate
indexed
metastas
durability
dissol
favoring
cu2
adsorbent
dates
odn
periodically
##ometabolic
organizing
budget
##oreactive
302
door
complexed
1g
2m
fibrinolysis
1980s
##enet
vow
requests
ricketts
##alline
##inflammation
urokinase
intraabdominal
pegylated
aflatoxin
threats
accommodation
inert
aunps
##atial
actinomyc
##oot
nephrostomy
amh
##ohep
cadavers
##biased
baclofen
##iptyline
stimulant
outstanding
puffs
bdi
304
c8
antid
##180
atc
lacr
reef
metabolomics
lyase
enoxaparin
unaccept
unrecognized
gef
sluggish
dissatisfaction
prazosin
mvd
##osylation
printing
4a
ddt
##rofessional
alop
victimization
##erine
##umed
##lyp
epcs
acquiring
hirs
hematomas
capacitance
intran
vascularization
scopus
economy
##foot
oncogenes
ngtd
##arterial
incar
fcr
hnf
1974
overloaded
simplicity
neuroscience
phages
stressor
heparan
transients
nis
diamond
xs
##ultural
pentobarbital
oldest
asphyx
transv
fischer
recovering
russian
moderated
e7
genotoxicity
baroreflex
##ochondral
camer
1966
rivers
mate
##asma
buck
##bryonic
pld
devoted
tdcs
grounded
propria
glycated
depressions
recon
cmo
buprenorphine
271
##erts
theme
pakistan
nanocomposite
lamivudine
derivation
storm
myocl
paco2
apa
polyamine
hypertriglycerid
keratitis
so2
seedling
##1a2
blow
marks
vea
iap
##esartan
condyle
2s
reapp
ish
compromising
ideally
lacto
occlusions
k2
prostacyclin
##tons
adrenocortical
myoglobin
##ohum
cime
orph
##opharynx
coincident
biomolecules
acidity
quaternary
##nourished
##tists
zn2
##elecoxib
t6
interch
elicits
densit
wishes
##repres
sephadex
ssr
gob
c16
glycaemic
injectable
mesoporous
##entration
equilibr
##electronic
##muir
##atases
274
dibut
##f3
dilute
jvd
abbre
subspecies
hcs
biodistribution
geometrical
celecoxib
meniscal
unbiased
externally
##astine
##relations
5h
seldom
2u
indol
directors
##ubic
##epsis
##omib
consume
langmuir
cimetidine
undesirable
bleaching
##kacin
##aner
crust
synthesizing
##igan
wherein
apgar
hispanics
##ellulose
fumig
exhaus
##accumulation
amput
peripherally
membership
hir
##hydryl
bacteriophage
antine
neurochemical
dissipation
stays
345
abbrevi
traced
percussion
##ationally
ictal
312
286
epoxy
tailed
maxilla
phantoms
mef
fak
mta
anticonvulsant
lmwh
neuropeptides
fecund
penis
viz
universities
glutaraldehyde
attraction
nonrandom
copyr
cq
##af1
butter
submandibular
reside
bcva
pellet
antich
flame
choled
buds
inception
prrs
cochlea
photoreceptors
neurovascular
terminally
authority
truly
##erh
vertebra
diaphoretic
myofibr
equivalence
303
hypokal
tall
prick
##antine
##oduoden
sterilization
##biosis
##alcoholic
zr
##lich
##cedural
reductive
ultraf
##biological
micelle
unheal
##arche
definitely
aliph
thall
cem
chloroplasts
ihd
mech
d10w
oligosaccharide
##earing
aberration
anode
eliciting
convincing
pus
##eor
##rid
##ipline
ipm
dub
##rum
stn
625
circumflex
haemophilus
scarc
copyright
tracers
##imeric
sectioned
tbars
refraction
candidiasis
voltages
concentrates
hypoglycaemia
inequality
hon
transparency
kcn
cystein
ivs
cd56
pharmacologically
##otherapies
intracerebro
introducer
580
caf
formerly
resistive
chile
spasticity
tuberculous
sublux
psychiatrists
puf
rightward
##iformis
undiagnosed
identifier
neonate
qa
complemented
electrosp
hapt
292
≥3
thai
##ospermia
bca
valine
4hrs
##planned
tcc
aii
probed
##atten
retinoblastoma
cdh
acromegal
popularity
evolutionarily
machines
metagen
meter
valley
village
glucosamine
296
meld
familiarity
urological
abundances
citric
##l3
##asias
cylinder
adventi
##ype
aforem
hba
tyrosinase
aforementioned
mbc
sider
cilia
fabp
##tids
carib
##western
s100a
entrance
282
connexin
restrict
exceptional
aptamer
uridine
##126
##ivir
detects
slee
polyvinyl
bees
s1p
protonated
rhoa
##ancreatic
##oxyc
vivax
geographically
hctz
tfi
exudate
notewor
1950
spt
0003
ryan
sarcopenia
antenna
##olide
##haem
pipeline
##bec
bioprosthetic
ed50
congeners
hac
exponentially
underscore
nanocomposites
bronchiolitis
jak2
computationally
intracerebroventricular
trpv1
##isco
lumb
hexagonal
casts
##onent
req
hypodense
heavier
epistaxis
counteract
lpr
pso
melanocytes
lrp
cd19
##olon
2500
##being
530
mmt
tonsillectomy
exhaled
constructing
##anoic
aliphatic
enthalpy
##etitive
buffalo
isothi
ags
##etization
engorgement
cine
mang
hither
credit
maneuvers
accumulates
dpph
##inoids
hypoc
mantle
ssa
dnp
calving
##riol
delineation
##vus
##adecan
nci
exchanges
homogenate
##ennial
habitu
lbs
orifice
estrogenic
##elvic
exocrine
query
pwv
agglutinin
myelodys
solutes
##trid
deafness
wellbeing
140s
noteworthy
hitherto
malate
embolus
##arct
anatomically
hypogonad
fuzz
faeces
conclusive
shortest
taught
climbing
justice
##body
##orhabd
chymotrypsin
answering
infrequently
caregiving
##yly
blend
corrections
##eliness
scrap
perfusate
amikacin
prokaryotic
acclimation
##jejunostomy
crispr
##aggreg
economical
speakers
##293
extant
pgc
160s
##fed
tank
incarcer
serially
certainty
doe
incidentally
underweight
altman
shh
myocyte
explant
divisions
mgmt
immaturity
##omyelin
naa
hybridized
tracked
f3
17a
tumoral
mdr1
294
discipline
##agal
##7a
##oplasts
solvation
##03
##ffer
##cc1
demyelinating
readmitted
wisc
renally
anticipation
##ei
applies
pursuit
kenya
##pv
cardiover
offs
sutured
stayed
adrenalectomy
dobb
vitr
cse
avers
realize
##fil
unbound
goiter
retire
##gly
ryr
##ropion
eur
mehg
antimal
hypertensives
powders
##oparietal
##amole
##ibi
raphe
##zomib
083
sangu
epidermidis
mcd
vagina
anaesthetized
prepubertal
exercised
posterolateral
##unts
heterodimer
connect
ship
morphometry
ici
ivh
283
dobbhoff
radiolig
immortalized
ringer
pons
##encephalon
aspartic
establishes
xer
behave
reddened
default
##roke
knowing
adenylyl
##issible
rhodamine
deeply
replicates
720
##othermic
periodicals
hemangioma
phal
##urface
##insically
voided
inductive
inducers
metatarsal
cpm
isotonic
uncoupling
##ender
thicker
rit
cathode
asymmetrical
rrs
dopplerable
termini
itr
kan
ay
draws
##lethal
322
framing
abortions
##okines
##feri
digest
reinforcing
##vol
6m
cb1
bacteriological
##ystem
carcinoid
##ollagen
##ostigmine
posed
mthfr
mn2
##arcomas
lysate
1973
##ca1
atria
aneuploidy
sps
490
intrapartum
tdi
##iiod
##rochanteric
##fu
hcy
merits
##izability
isozymes
derivatization
ebs
compelling
budding
287
coadmin
extras
relied
geor
##oproteins
attenuating
academy
##lorinated
##rote
sulfhydryl
trapez
##acoustic
dce
requesting
licensed
nectar
stomatal
##emesis
spliced
substituent
quadrupole
log10
haploid
dipyridamole
##kl
##obenzene
##bv
apache
##fi
316
rotations
##rogenesis
microalbuminuria
tsa
unaw
##ronic
diol
enjoy
peptidase
topographic
gonorrh
traces
cecum
lunch
##yer
adhered
blasts
pml
incompatible
hydrothermal
triiod
neurotic
commiss
transvaginal
##rc
intensified
quartz
svm
duplicate
uniformity
inflated
##entorial
pedestr
kiss
ductus
epilep
urodynamic
##bet
fcs
mites
##port
outlines
pread
mucositis
herm
clipping
355
athletic
neurofib
click
##ront
phosphates
405
degranulation
##isy
sonic
##osylated
ate
usp
tga
##aning
heterochrom
##othione
postsurgical
chyl
313
csru
town
vasoconstrictor
fluctuating
tpp
simpler
saccades
beneficiaries
carrage
chemosens
lsc
hamstr
osas
thiaz
innerv
281
protozo
fibril
sgc
acetylcysteine
immunizations
laminar
worsen
tremendous
pept
pediatrics
thiored
dysregulated
##access
euc
meso
globular
fap
##othermal
##acholine
ptp
sulfated
congested
##uis
##tiform
transurethral
150s
plag
visitors
alopecia
mimetic
humor
potentiate
##antes
mansoni
p50
whey
mindfulness
ferm
cholester
##mph
hypermethylation
beverage
antibx
tones
ppargamma
hil
##elong
mdma
hypercapnia
297
tumorigenic
accelerating
audio
##afted
050
aperture
tok
butanol
metacarp
##diagnosis
ignored
##oidy
##ocere
matr
##itizing
photod
##osacral
1ra
shunting
egr
voic
##oped
pyelonephritis
biotransformation
electromyographic
saturable
coordin
##rf
##dehydes
##ahedral
noncontrast
##rowing
mpp
immunosuppress
endorphin
##ofuran
tgfβ
tubul
bootstr
rifampin
player
temporomandibular
unhealthy
metabolizing
amni
alloys
neurobiological
migrants
choledoch
##opterin
epitheli
bouts
##co3
translocations
aggressiveness
intratumoral
inversions
supraventricular
initiates
xp
##intervention
magnitudes
##fused
##fetil
conflu
chronological
modal
##oagulation
sorted
kines
synchrony
panels
24hrs
284
##i1
adapting
gynecology
##apore
tapered
425
practiced
##oronary
##ensory
prevalences
324
concussion
sphingomyelin
cryptic
pms
organelle
cd133
reactors
withdraws
polymy
pcm
##uccin
giard
colos
traz
##ropic
novelty
accessions
fulfill
##cnts
burgdor
##oproph
510
visibility
lobar
igh
inferences
massage
hydroxyvitamin
cst
irin
pmp
clothes
somnolence
lymphoproliferative
120cc
collic
sfa
myoblasts
oncologists
dsp
transs
fuzzy
speck
lncap
##econds
nascent
hyperglycemic
χ2
bore
modelled
inactivity
beating
antidiabetic
runners
rhd
iodo
proceeding
pach
##accharide
ip3
##itz
homing
enema
kyoto
clarification
##born
nct00
cholerae
##methyl
##plen
meconium
phenotypically
proceeded
washington
bend
multidetector
burgdorferi
n3
craving
bulky
vitell
pgi2
trehalose
kallikrein
soccer
hydrochlorothiazide
ependym
##ilament
inaccurate
byst
xps
##±5
##field
nanofibers
cryptosporidium
hgh
anesthesiologists
glenoid
hives
employs
histones
blockage
pdms
viscous
##behavi
##eca
nms
claudication
claimed
endocardial
inquir
##olinergic
##oping
crystallin
##endothelial
irinotecan
achievable
wallis
schiff
suvmax
cushing
usability
alcoholics
compiled
kre
333
anchoring
##gers
trended
##ithin
midgut
ipc
biochemically
axilla
asthmatics
bandwidth
manipulate
##weed
shaking
covariate
##renic
##ohumeral
bats
endos
ncr
magnetization
fried
hib
lithotr
glucone
swing
things
318
rug
invading
adenoviral
aspergill
##vision
##omorphine
invested
subdiv
jurkat
shan
recapit
##3t3
##ovulatory
unexplored
imidazole
nsp
krus
snack
tams
redo
exped
contrasted
##echanical
##olytica
inefficient
fw
herbs
##506
ngs
denaturing
hydroxybut
polyposis
##ographies
categorization
identities
solubilization
rbp
heterozygotes
astr
premed
lasers
macron
uvc
voric
ultrac
street
myelos
landf
ther
methacholine
##oniaz
326
silhouettes
depicted
cephalosporins
##aortic
photosystem
mott
vascularized
mrp
##2r
unplanned
##amps
api
pdc
photons
neiss
ploidy
tubing
elevate
fulm
acknowledged
##erhans
##epsia
thinner
langerhans
phosphatidylserine
##iliac
destroyed
sax
postex
overestimated
valued
walked
overcoming
cardioprotective
0400
##h4
singapore
oxidored
##irr
cyp2d6
conventionally
steers
##balanced
isth
f4
asympt
##burgh
ambig
videos
classifying
##oglut
walled
bringing
mph
p75
rer
ancestor
pneumoperitoneum
partum
tbs
capturing
hepc
microbe
embedding
##ilia
##aea
cort
completeness
##oplast
manufactured
aeds
actuation
##onders
facts
##937
conversation
deals
seemingly
dyspepsia
##itrite
pdi
trus
##apheresis
aversive
localised
mine
orthopnea
lacrimal
##asties
aquac
291
nephron
parkinsonism
##oglitazone
circumc
amend
apap
cohen
isoniaz
hematopoiesis
involunt
seropositivity
##hom
argument
scapular
intrinsically
##arctic
##trexone
transcriptomic
5a
aegypti
tuberc
imperf
interind
arte
##tines
overwhelming
vzv
rps
nlrp
polyg
talking
##ozoites
corroborated
##ostr
virions
fibrillary
sip
tj
microglobulin
inconsistently
ncc
##igel
victor
##bearing
hemiparesis
palmitoyl
cba
cbp
lett
confinement
immunoassays
telemedicine
rnfl
##idene
zirconia
carolina
##onecrosis
lactis
juxt
diffusivity
ql
voriconazole
cardiople
mentally
##agglutination
##enth
icus
symbiotic
pioglitazone
##istant
myopic
mdm2
minnes
immunofluorescent
dephosphorylation
lifelong
antiinflammatory
territories
v5
compos
##orated
defensive
tympanic
gus
vertex
arthrodesis
flavor
progresses
gdnf
nadp
biting
penal
wakeful
wg
echogenic
micellar
allodynia
306
##grams
cardiometabolic
obstructed
pef
cmt
protrusion
overb
vene
recommends
##okinin
streptococcal
igt
lfa
ryanodine
leve
mesoderm
##outs
##q11
monitors
##1c
blister
terminate
meteor
##atids
manipulating
dentures
charco
immersed
deprot
cpc
citations
quantitated
awakening
heritable
supervis
##d3
aster
brand
retirement
adjuv
cmp
radon
forage
shel
stereotyp
##cription
merit
wants
refine
323
transcriptionally
iri
crowns
##imin
##yled
myb
pulmon
scopol
qtls
interspecific
urease
chemoradiation
polychlorinated
daptomycin
ethi
monod
pdl
fulminant
dpi
tremors
adamts
infestation
interrelations
refusing
dystrophin
t10
minnesota
##exy
diat
##otin
ramus
hots
##educ
apps
imprinting
homozygotes
309
booster
sms
keywords
otc
avenues
fecundity
mev
labet
interindividual
reliance
dsdna
neuromod
oligomeric
interconnected
invertebrates
berg
ille
iiib
##immune
pemph
pharmacies
benth
strab
anus
solumed
bottlen
clad
kup
289
denv
gynecological
transferring
spectrophotometric
proficiency
dioxin
dup
ruminal
integrates
isoniazid
negativity
##osable
lights
conspicuous
##izine
argon
borte
resonances
crime
depolarizing
##ilution
diagonal
sis
cataracts
joining
##acological
avium
##ocortex
acetylated
quotient
o2sat
neuroinflammation
separations
belt
news
localisation
impingement
fetoprotein
accessing
taxol
extracting
rtx
rts
ricin
phosphatidylethanolamine
fragility
bortezomib
debilitating
latino
infin
q4hr
hyaluronan
ginseng
aluminium
dentine
ghrh
vasodilatation
intraves
##ampl
displacements
bisphosphonates
emr
fura
accomplish
hypophys
proto
bioassays
postinf
myasthenia
exploiting
##344
fission
otolaryng
internally
##116
pragmatic
##encl
densely
avidity
fcm
thyroiditis
centros
thioredoxin
facets
coagulase
cisterns
io
chat
cnts
miniature
clarity
cognitively
ht1a
ats
charcoal
pretest
wireless
338
rheological
landmark
384
##delta
3β
##ifferentiation
##eland
660
affordable
apomorphine
zw
esm
compressibility
leucocyte
underpinning
innervated
taa
##orespons
interferes
millions
phylogenetically
fimbr
littermates
defec
caspases
gk
pemphig
##hog
hscr
lw
perpetr
disinf
insula
##arius
widened
##achi
nonadher
##romed
##reshold
rooms
guarantee
drawbacks
lan
tortu
dcd
fts
##ferrin
##ivirus
dictation
##ride
##etting
analyzes
##yll
facs
globe
##hydration
##assemb
dihydrop
discontinuous
opc
paramount
##agliptin
colomb
oi
demonstrable
prospects
##architect
diagram
##alasin
penetrate
maltreatment
dysynchrony
solumedrol
ccd
coales
punctate
crashes
clears
##apa
negoti
youths
epilept
myelinated
lightheadedness
phosphoinositide
##ysts
smcs
hedge
autistic
compass
##oxides
fuo
##aks
780
radiographically
characterisation
forel
131i
##enda
lymphangi
ramp
##imentary
317
b4
reformations
##omycosis
mitigation
##rotum
irregularity
herbicide
uros
esd
lots
exceptions
cd31
pthrp
##aters
reconc
incisor
valsartan
kang
##adh
party
thermost
symbion
patella
acetaldehyde
##uese
canopy
enzymatically
nf1
hydrolytic
histopathologically
flushes
autograft
precipitate
valproate
scopolamine
glen
immunology
tue
##oceptive
uranium
tut
synch
##ivent
degs
preparedness
forth
fms
##tiveness
serovar
##occlusion
##ospatial
bradycardic
club
sirolimus
epoxide
##rutin
##ethylated
##eme
plastid
t8
modestly
royal
##ocyclic
impr
malfunction
modifies
msv
##enclamide
##ongru
fick
deformed
retail
jh
cyp1a1
incap
marriage
##osh
##cement
##ellin
##iphenyl
rs10
630
jia
gay
trx
afterload
314
cereal
sns
polyt
pend
stenotic
##rew
hopeful
neurobehavi
##osi
micromolar
brit
##valvular
enterica
##erculosis
promptly
pravastatin
milder
glib
innovations
glur
hcts
##men
isc
tetrod
thawed
wo
deliber
keratocon
##anserin
##coprotein
##5b
strep
##idian
misoprost
odc
cholesteryl
##ocs
hydroxyd
protamine
##oning
##etus
tracks
bags
likert
vigilance
enantiomer
floating
estimations
football
esthetic
bulls
##600
formyl
millis
##amyl
250cc
ethiopia
sexuality
##igg
328
##ethylammonium
misoprostol
hydatid
rads
lysophosph
nephrology
commode
edent
circums
##opar
307
predominated
miscarriage
##lm
fibula
scrutin
info
taxonomy
##tian
chromophore
certification
sunlight
##ecium
peritoneum
##isen
hypov
##actyl
diphther
quadrants
pdac
##reathing
riboflavin
bites
##aba
nitroso
drastic
##orphism
maxima
pectoris
gets
harms
portuguese
##traction
flushing
2p
mls
spondylitis
activations
capped
citizens
inhalers
diuril
kruskal
pollin
##ucine
extensions
universally
strengthened
addic
markets
isothermal
##owed
##n3
farming
responsibilities
25cc
astrocytic
##igenin
cancellous
tuesday
controller
950
attrition
dmf
##annel
ruth
pursue
babygram
##hydro
endplate
lvad
posttransplant
hazy
humic
c17
mold
bicycle
##osmotic
1hr
t1dm
broilers
nmdar
tetrodotoxin
rcbf
488
crit
phosphorylase
##orptive
intervening
##eryth
##hae
effacement
hemothorax
juveniles
phosphatases
incongru
nef
retinas
electrophysiology
mainst
bubbles
##yletic
##ineural
pav
aerial
pork
quarters
inulin
corners
monolith
multilayer
fractal
0800
multicellular
##wl
anteced
exo
northeast
zeol
##entery
##acrine
vegfr
rpl
bathing
photocatal
polish
immunologically
tell
strugg
syncytial
##nu
nanog
pyridyl
retinoid
##rofolate
dlp
wakefulness
hyaline
cyano
suprath
##aural
helminth
capd
splanch
##activated
disks
##ums
appeal
##coming
itch
gm1
transposon
ureters
##ardi
bacul
infarctions
columbia
##erme
startle
urticaria
resins
stands
unprot
mtd
therapeutically
sensorineural
hematemesis
balancing
dislocations
##rectal
capsul
mesenchym
recalc
fluidity
sling
modifier
genu
mechanistically
u937
qm
organomegaly
phr
fpg
620
eruption
molecularly
##iment
ipt
survivorship
peroxyn
sprint
logic
streptomycin
##pb
marm
rhb
cant
subn
pteryg
shigella
spoken
tortuosity
pepsin
intentional
illumina
classroom
immobility
cd38
##oton
rainbow
##iaa
defenses
amphiphilic
cape
c1q
shield
ddd
80mg
magnification
myelopathy
reco
caen
nonhuman
postal
chances
nonalcoholic
fourfold
##erule
rifax
synonymous
p0
languages
kupffer
verteb
##romatosis
intert
adenomatous
papilla
##butamol
kilob
triacylglycerol
calcitriol
##worth
50th
defibrillation
cavitation
5s
r0
eradic
ohda
agrees
nymph
zh
logical
radioiod
carboxylase
voids
##ipsy
postulate
enhancers
cbz
microorganism
hart
t11
cvc
digits
scotland
fi02
##gry
hydroxyproline
##olipin
buffers
budes
myotubes
fuller
ovip
accelerates
biotinylated
denitrification
##orrected
condylar
duplicated
cscs
scrotum
##icc
saturations
##oprophylaxis
rectif
##orescence
avoids
diuresing
atelectatic
nanoshe
hek293
nutr
##traline
microsurgical
carrageen
bival
##hard
sulfoxide
extram
subluxation
##rolateral
##arded
11c
caveolin
stripping
potencies
salbutamol
morris
metamorph
##pregnant
budesonide
nq
bcl2
iud
398
##nn
chee
forehead
court
336
dtr
##epi
bruising
##00000000
epileptiform
##ophenolate
##adaptive
##orbed
aliqu
hca
##onam
sclerosing
aggressively
characterise
pleomorphic
xy
inactivating
suckling
causality
20th
##ancerous
aside
##orhabditis
lyophil
torr
##⁻¹
pgr
evar
psii
##chondral
##ectant
exfoli
332
repeating
biob
electrochem
ghana
##amoeba
##icates
inductively
lc3
anchorage
gor
cour
diesel
schoolchildren
gp120
naphthalene
##grass
pressing
levetir
##equencing
##odomain
transwell
valv
uganda
plp
multifac
##emediation
euglyc
##isia
delaying
noncomp
##zin
dosimetric
guanyl
##endazole
malle
laevis
pancyt
nimodipine
titre
454
0600
extraord
edible
remif
arabia
glibenclamide
##isis
rsa
osmolar
385
gamet
iph
snails
##ygb
mcao
watershed
multiplicity
shower
darkness
tie
spm
pneumonectomy
fingerprint
rantes
metallothione
levetiracetam
saccade
jointly
##porter
containment
neisseria
##ofluorescence
342
ptv
story
sock
##itizer
sertraline
thoracoscopic
##ofibrate
mission
apg
affairs
zd
indones
##anciclovir
concludes
##capes
intragastric
inbreeding
##orrhizal
brs
graphite
aldehydes
amitr
htert
spheroids
327
aedes
glut4
nighttime
johns
antiphosph
ambulating
placements
acrylamide
unint
microvessel
cia
irrigated
##cessing
cervic
lordosis
demethylation
arteriolar
1p
involuntary
petrole
overproduction
pnp
##ifos
breakage
administrated
pastor
rectang
clath
nods
indo
recalled
vta
vagus
taqman
nonph
inflammasome
bm20
b3lyp
##globulin
chi2
phenomenological
endorsed
himself
pearl
originates
nonresponders
##tiapine
itching
pathophysiologic
lowers
websites
biochar
15n
chorio
##etries
claudin
sjogr
##ups
shbg
bullying
##arctation
hedgehog
pooling
##inum
epididymis
cholecystokinin
privacy
villous
atopy
mof
varus
##reach
##ophene
##ituric
ctp
##ald
todd
cartrid
subgen
4b
mares
argues
deactivation
neocortex
##riers
hypnotic
shuttle
parag
denervated
imv
monocytic
cytolytic
##onscious
wavelet
##indole
mala
pontine
isi
appreciably
syno
biomaterial
nem
pediatricians
photoin
432
pht
peroxynitrite
sund
propos
ddp
blu
multifaceted
cystitis
endings
naltrexone
microvessels
casting
##esters
chic
##itil
75cc
externalizing
ensures
remifentanil
ttx
##ocalization
splanchnic
deterministic
endodontic
recirc
##tigens
nonl
pedi
cemented
decidual
discriminatory
thawing
emer
ctni
hmp
##kinetic
adjuvants
styrene
##140
multist
petroleum
lasik
duck
specialization
##adate
##odrine
specify
tnt
hyperinsulinemia
labored
##ostosis
leucocytes
spaced
paroxetine
ownership
necropsy
##incial
diphosph
htr
mycophenolate
quetiapine
curricula
miconazole
crystallography
nlrp3
postpro
dibenz
barrel
goblet
18s
milestones
losing
##hb
##phenyl
interphase
combivent
tetramer
##osic
antarctic
vacuolar
##antigens
singly
nonparametric
anopheles
##fm
bimodal
hyperc
caribbean
sri
mibi
deaminase
ira
implicating
lymphedema
styl
transcutaneous
capita
toile
discoveries
thallium
evoke
segregated
##anate
##onsin
##urring
erosive
binomial
terp
ports
patterned
archaea
451
liz
##axanthin
opto
docum
sacro
tetrazolium
vat
egta
aerosols
sjogren
retrop
343
accreditation
pyrophosphate
bump
ema
toileting
save
diacylglycerol
lns
a4
sublethal
glue
##atran
##baric
cgy
bruce
oocysts
television
elaborate
deacetylase
spider
placentas
barely
musculature
auxiliary
##opically
tanz
fibrillar
unaware
appl
perturbed
plugs
bde
##erations
fst
##kins
##othorac
##opolymer
bacteroides
polysomnography
##training
steat
tetrahydro
offenders
0004
subchondral
conceived
##meas
##phosphatidyl
porphyr
nonpregnant
splint
nanotube
triangular
chagas
didn
colostrum
crosst
neuraminidase
laid
mpi
enth
menarche
npp
##tegration
##osseous
borrel
eliminates
tef
ctgf
triiodothyronine
continent
outreach
afb
permitting
##gp
reoxygenation
fertilizer
insults
restricting
heterotopic
512
ovariectomy
wisconsin
##ource
extracranial
sang
infarcted
exacerbate
unequal
##rest
biotechnology
pvl
##antly
microflora
mismatched
##oba
erythematous
portex
buffering
##acyt
tympan
vign
##n4
dts
respirations
590
triceps
mend
glycosides
pm10
advocate
##rey
mtc
##hss
ama
##rotoxin
deae
formulate
threatened
##jiang
silenced
spouses
internationally
lactoferrin
##itably
coculture
queens
##azoline
mud
cher
bridged
assignments
##imeters
commensal
matured
nbs
##ifolia
partnerships
triam
ketoacid
conidia
##ofovir
##rosterone
spermine
documenting
roch
isoenzyme
absc
wp
348
tars
favors
plasmonic
luminance
erosions
319
##kel
##quat
deoxyc
stab
pitfall
##algae
##junctiv
disproportionately
pockets
##apsules
fertilized
drows
opiates
argentina
anticholinergic
##aginous
homosexual
nachr
flocc
somnolent
tunneling
barc
disparate
lips
oxygenated
amyotrophic
pheochromocytoma
hch
h9
10pm
perovskite
conspecific
carbonic
avascular
amalg
##rad
paraventricular
e4
cooled
michaelis
shunts
hyperbaric
##erks
functionalization
predetermined
snoring
correspondingly
eicos
vertically
tavi
concerted
ert
retains
lobular
##y1
beer
castrated
##eic
trains
##odeoxyglucose
habitus
soma
##ytoplasmic
##osahex
autophagic
cd68
fumigatus
hyperrespons
replicating
redundancy
hub
##olamine
malaysia
urosepsis
##enedione
carrageenan
sgl
empowerment
qsr
temperament
equity
phc
mesenchyme
shielding
tle
##asyn
reversibility
evs
localizing
speculated
##iseal
gau
reentr
##imidazole
plotted
myelodysplastic
asymptotic
lump
pyre
resectable
321
##onditioned
strid
fe3o4
caenorhabditis
tos
amps
crying
inclusive
rhodopsin
##omethane
photonic
misclass
##apent
amazon
erps
internalizing
relying
periplasm
soldi
1970s
piezo
protonation
dyads
degenerate
prices
intradermal
customized
dj
perist
dyskinesia
unprotected
yb
naoh
seeing
acellular
posth
astrocytoma
characterizes
bystander
tav
advers
##ventive
evenly
dsrna
prs
issued
dinner
##epo
deco
isotype
azide
sacrum
paa
##erea
strata
parat
cpd
mpm
breasts
necessitating
colistin
hydrop
emerges
euthyroid
adt
huntington
hug
examiner
matrigel
sulfonyl
peptidoglycan
decont
endocytic
ecp
aop
351
680
reble
radioligand
329
rosig
purpos
extrapolation
fluorodeoxyglucose
##electroly
bodily
intolerant
subreg
withdrawing
unreli
dysarth
preoptic
endotox
adenoid
broadening
hypoxemic
mos2
obliteration
senescent
singular
##clip
seeks
cinnam
gentleman
##essel
ucx
α1
alkaloid
raters
procollagen
##ynchronous
guest
imd
avid
mbq
thiobarb
scfv
pericarditis
##omplex
ventrolateral
##uximab
isoc
gym
epithelioid
1s
wastes
mpfc
hyperdense
rosiglitazone
brow
batches
weaknesses
intergenic
consultant
pedigree
confluence
conferring
aquap
docosahex
landing
urinalysis
##raph
kainate
hepatop
##olyticus
thalidomide
antihist
worry
##romal
exploitation
supplying
ocs
nonselective
mutagenicity
ek
isozyme
cholinesterase
334
hypocalc
##har
eralpha
acrosome
lepr
##uating
cco
isomerization
##prop
vocs
ruthenium
mainstay
gulf
microdiss
architectures
untrained
##algias
aztre
scaph
331
reversing
socs
putting
transducers
interprofessional
mvpa
ttr
##estosterone
infrarenal
##ethane
substr
395
scab
concert
scleroderma
mobilized
##ulectomy
disconn
hpc
##oselectivity
cleaned
mtr
macros
commenced
gist
comt
typed
crep
aac
captive
phagocytes
microbubb
organisations
linol
##ovan
arid
skip
chlorinated
fixing
prer
pathologist
##lements
deuterium
actinomycin
##adhes
aspergillosis
cd1
rhizosphere
autogenous
obligate
t5
errone
##esin
oximetry
pga
enucleation
spectrophotometry
fmlp
dma
##odyst
##lational
formate
mineralized
atypia
appliance
378
impulsive
dyslex
saturating
lumbosacral
110s
##ritical
7pm
dura
clavul
tata
ivus
thursday
averages
24hr
sulfonamides
lca
##astigotes
5ht
tran
dmn
earthqu
normoxic
angulation
tricyclic
cimt
3mg
renders
##ellites
abstracted
accession
##ogloss
clonogenic
rs2
cocktail
dth
570
nse
peru
coexpression
dome
363
tcd
f0
sprouting
##iflex
neuropathological
shortcom
isoenzymes
flood
intracardiac
melt
shortcomings
cytor
absorbing
wl
inclination
sway
basket
purpura
sta
d50
topically
phytoplankton
labetolol
coarctation
341
vocab
permanently
hysteresis
pj
malnourished
cpe
sink
hne
hyperemia
azt
momentum
methylphen
brucella
myd88
nodding
subth
ppg
deposit
underlies
hemophilia
xyle
interdep
definitively
appreciation
deciding
huo
##apto
##ycholic
cbl
puer
leukopenia
knew
##afe
337
##anolic
##omel
antihypertensives
orfs
mercapt
happy
nog
myometrial
##osts
tir
emergencies
pge1
isomerase
adrenals
sorbitol
##gesterone
nonsurgical
aad
##alva
saved
##interpre
emin
ffr
pans
beag
##engers
sales
flexiseal
##legic
edu
##gium
##a3
chemopreventive
antitr
meningococcal
##nr
reformats
directing
says
thiols
vec
##cedure
polyneu
##tices
formats
fabricate
postgraduate
pufas
neuroanat
columnar
pediatrician
duplications
thf
antimalarial
alarms
##azide
isoprenaline
##onated
##anone
##ysteroid
unfavour
sce
really
photoluminescence
encephalomyelitis
##orbable
justif
unintended
##retinal
##ipher
8th
##uctured
thiobarbituric
spc
cotin
lipof
harbored
biosensors
346
naprox
carboxymethyl
rgo
holter
leaking
suddenly
tukey
2g
endosomes
telomeric
macaque
proteus
nirs
##acurium
compositional
uncorrected
##wash
aztreonam
2400
impressions
benzoate
pancreatectomy
2x
vitil
##ovaginal
1972
muc1
##agenic
ntr
adrs
myalgias
isothiocyanate
marketed
foraminal
exhaustive
3beta
##oporphyrin
marsh
crosstalk
bart
##olac
##agus
##omac
sod1
knot
habituation
learners
hyperuric
##oconazole
oxacillin
toxoplasmosis
appearances
coordinating
antiangiogenic
415
aptt
tentatively
spur
##ipride
benzoyl
lock
microliters
dihydroxyvitamin
lightly
summation
nitrophenyl
339
superconduc
chordae
##h3
phent
##anercept
pursued
eoc
immunoreg
rins
##tep
cooked
garlic
disorient
excip
gig
##brush
999
expiration
spouse
##retic
cargo
oligodendrocyte
manufacture
##1p
##avidin
villi
bears
decad
alend
coliform
etanercept
hilum
itraconazole
osse
phrenic
##opoietin
373
anoxia
pdr
nonco
mrcp
schistosoma
michigan
aom
antiphospholipid
##ries
divide
adeq
registers
consulting
##inae
acetylgluc
photolysis
356
noncompl
anterogr
hyperintensity
##omol
polyureth
exogenously
##±6
dqb1
##arging
stabilizes
macul
nomogram
ree
transluminal
##graphs
##amili
##tite
sphingosine
chelator
invariably
pco
turp
##etast
stating
eca
counsel
administrations
chc
aap
sleeve
tpm
rewards
insecurity
kef
thermoreg
substitutes
avl
intracoronary
##axin
holo
valsalva
lind
hpt
##lessness
##nit
arteriogram
##cast
narrowed
nepal
semistr
myofibroblasts
pid
polyamines
##ox3
bron
alfal
decis
##licted
eco
efflu
##cryst
pasture
preserv
yers
carcasses
##diagnostic
sirnas
converts
sinensis
arteriography
##trauma
lentiviral
calend
harr
sily
endoscope
##azin
##onella
jack
##itism
staffing
g6pd
regenerate
dps
localizes
##urities
kangaro
##gd
##che
399
lbw
imipramine
wetland
grows
photop
semistructured
mma
##264
ikappab
uni
ltb4
diap
quadruplex
stear
knife
confidential
cyber
ida
intensively
mrc
minimization
ontogeny
asphyxia
imperfect
cme
sest
proteobacteria
##argin
##achus
naproxen
##uronal
cumulus
lrr
framesh
rac1
##osf
osteonecrosis
455
assumes
fax
##oresistance
##peep
##opathogenic
transepithelial
fron
intuss
benthic
7am
alfalfa
trifluor
dme
ppc
thyrotropin
thyroglobulin
neighbourhood
femt
dmi
recruiting
cd36
##ocholine
afb1
alignments
##alic
liability
402
oxidoreductase
preformed
merist
##flurane
##rospor
70cc
bsi
anthocyan
electroencephalogram
nfat
unloading
glucoside
eighth
invertebrate
discourse
alendronate
iad
malaise
yoga
pseudocyst
racemic
catchment
bruit
akinesis
tce
proband
adma
timolol
nonfatal
stat1
wavegu
##tera
abduc
##iptan
maf
realization
orexin
officers
unexposed
ibm
45ca
euthanized
ankylosing
407
tingling
gauze
acceptors
autoregulation
races
##oplastin
spleens
##factorily
##04
unacceptable
convulsions
srp
vitiligo
soln
athlete
##irm
synchro
##ophyt
tourn
fluorine
dtt
thru
crystallinity
catastrophic
telomeres
simian
oxldl
##pps
anticoagulated
quintile
corrective
##romazine
525
wt1
proactive
mania
c12
bras
plethysm
clonic
lateralis
367
nucleosome
southeastern
##itans
500mg
osteopontin
overgrowth
cardiotoxicity
strabismus
controllable
baso
glenohumeral
fk506
poag
crass
vinc
nkt
anthracycline
##5y
trichloro
extraocular
biomechanics
##tles
shade
formic
##holm
##otency
hrql
operates
inserts
disruptive
aphid
hts
unfamili
oxidants
echogenicity
glucuronidase
multiplication
stalk
approp
ipl
##roni
capping
willi
parking
ld50
cnp
##jury
##asy
##ariae
qsar
lithotripsy
extrapolated
##opeptides
desmin
profit
accelerometer
##oxine
seminiferous
insular
perforations
subclasses
spaw
hypertriglyceridemia
nondis
propagated
misle
shellfish
chelation
bioinformatic
##con
sensations
paralytic
krebs
dystrophic
initiator
anorectal
##duced
##ocycline
focuss
pyreth
unfavourable
reclass
nucleolar
mpr
45am
dca
tnbc
electrophysiologic
vastus
symmetrically
colliculus
rye
arcuate
##ymia
mock
50mcg
jewel
abundantly
cotinine
quail
farnes
##iso
##lines
colic
cellularity
dispersions
virologic
fork
keratoplasty
##mectin
subsam
##atechin
rcs
##onus
encompasses
antiapoptotic
cytochalasin
thromboplastin
thermophilic
buried
exceptionally
ginsen
amended
patell
##elmin
lacunar
pharynx
genic
unconscious
dag
corticotropin
advocacy
lq
chen
coul
fundament
morbidly
overlapped
lucency
##risome
intussus
breakpoints
##ener
belgium
citation
provocation
runx2
disagreement
##ithm
tritic
anuric
##unate
##ghai
multitude
##obaric
paulo
dwarf
maladaptive
kev
dentist
dmba
unilat
endosomal
##200
enterococci
bisphosphate
taxon
hunger
carin
hydroxymethyl
quinine
ketoacidosis
##iferol
##umes
lycopene
governance
replicative
doi
ddx
electroporation
##rogesterone
breastfed
##with
srt
##vised
wnv
mlr
clr
##akia
##transp
sphincterotomy
pce
resides
sort
##uanosine
nonunion
achr
pancytopenia
##ylline
abstraction
##294
hpv16
erα
366
364
malalignment
fats
ancillary
irb
tightness
reluct
##fv
670
cob
##otrophs
pae
undefined
unasyn
dilutions
protozoan
##ropylene
3s
##ogs
##lot
capec
##urv
fsbs
nonob
ceph
##iden
##gener
transformants
hyperre
paraplegia
subjectively
hepcidin
##ubl
alkylating
underestimation
##ui
hydroxyethyl
##hole
##iaxial
microvilli
rapd
353
gilts
optically
##orbide
bost
stm
il6
fascic
antineoplastic
##axine
##othoraces
resistin
palmar
gat
formally
wednes
oe
distinguishable
worrisome
##othec
craniectomy
foveal
palliation
migrant
ropivacaine
##americ
guang
effluents
##atentorial
qam
ils
perfluor
immunosuppressed
nanotechn
mesial
vibrations
palmitic
greek
##ominant
czech
miu
utilised
##asculature
##othi
icv
instar
pyrolysis
borrelia
radiating
faith
remnants
utis
army
ait
354
multicomp
##tosis
assisting
mdck
pallid
forget
##imod
cyp2e1
capecitabine
chs
galanin
enolase
steroidogenesis
endoscopically
laxity
payments
##pid
continually
ugib
##otrig
mms
aggravated
arithm
intracellularly
diamin
hypochlor
endocannab
stoichiometric
isole
##ixed
##tida
electronics
estimator
discordance
satisfactorily
##hibition
gos
##rophied
372
researcher
486
arithmetic
mop
##verbal
unresponsiveness
mage
475
mustard
##ibe
adal
horizon
isotherms
intracytoplasmic
thiop
interr
confident
psg
assemblages
xylem
shells
lil
##bm
chimeras
fee
whate
delphi
peroxisomal
wwp
12th
synech
neurobehavioral
whatever
bum
nsc
##laf
##obutyl
fingerprinting
vitality
rns
yoh
pcn
nscs
##factors
fundamentally
unchar
[...]
